00000110
00010010
00111100
00100101
00010111
00000011
01000100
11110011
11100011
00010011
00101001
10110100
11001111
01000111
00000011
00101001
00100011
10111011
00010101
11111111
11101111
00011010
10101111
11010001
00111010
00110000
00101101
01001000
00111110
01001011
00110111
01000000
01011011
00011000
00000110
11111101
11100110
01001011
00111000
00101111
00110100
11100101
11110111
00111001
10111001
00110001
11011110
00010010
00100110
01000110
00100111
11010001
11110101
01001010
11011010
11001101
11110111
00000000
00010000
10101011
00011100
11111011
10111110
00001100
11111111
00111110
11011010
00110010
11011001
00100111
00101011
11111011
00101101
00111101
11110000
00100001
00111101
00001011
11000101
11000111
11100010
00001111
11101011
00001011
00001111
00000110
11111001
10111010
11011110
11100111
00111001
00011010
10001100
11101001
00111101
00110110
00110101
11010010
11100001
00101100
10100001
00001010
11001101
10111111
00011011
10100010
11000000
00111000
00101011
11110110
11001000
11100110
11110101
00100011
11111010
00100100
00100110
11100011
11011101
00101111
11001001
10110010
00010111
00010110
01000001
00011101
00000001
00011001
00101100
00010100
10101011
00110101
11010101
11101100
11011000
01001010
10011111
01001001
00010001
00100111
00010010
11000110
10111110
00111101
11010100
11101000
11010001
11011010
00010101
01011001
01000111
01000111
00110100
11001111
11100010
00001001
00000111
11100100
00000010
11101001
11100110
00001000
01000010
00101101
00011001
01000010
00000000
00111100
00000110
10101001
00011001
10000000
01010101
00001001
00000111
00001010
10100000
00010001
00110011
00100100
11011010
00101111
00111111
00100011
00110100
10110100
00000110
11101001
10101110
10101101
00101001
00001110
