0011000100101001
1011100111101111
1011010111111110
1010101101001101
1011101000000110
1010100000100101
1011100100100000
0011101001010100
0011010111110100
0011010011110000
0010101111010001
0011100101010000
0011010000111011
1011100011001111
1010110111011110
0010110011110110
0011011000100000
0011011011001010
1011100100101001
1011000100011010
0011100110010111
0001110010010110
0011100001101110
1011011011011011
1011011111111110
0011100010101001
1011010001000100
0011010011010010
1011011111000111
1011100110110001
1011010011111011
0011100010100011
1011101010000011
0011010110011111
0010110011111111
0011010010101111
0011000111111111
1011011110000111
1011011110110101
1011011100001010
1011001101001010
0011010010000111
1011001100101111
1011011011000101
1010110010011110
1011011110010101
0001110000011011
0010110001001001
1011010111001101
1011100111101000
0011100100010010
0011100100000010
1010101001101011
1011011110001000
0011101000111011
1010110010101101
0011100000010010
0010100101011100
0011011000100011
0011100001000001
0011100101110011
1011100111101111
0011101000110000
1011100110001000
1011000010010000
1011010011000111
1011100000101001
0011100011000011
1011001001011010
0011100101111010
1011101001010111
1011000001111111
0011000110001110
1011100010000011
0011100000101111
1010110001010101
1011000111110110
0011010100001001
1011000010101111
1011011111101110
0010110001011000
0011000010111001
1011100000100111
0011011101101100
0010110100001000
1011001011101000
0011100110010000
1001000110001101
1010111001000010
1011000010100001
1011011101000010
1011011000110101
0011001110111100
0011100100110101
1011100010111001
1011100001111001
1011101001011101
0011101001110000
1011100010110100
0011001011010010
0011000110111110
0010111100100110
0011101011110000
0010100000001111
1011000100101101
0011011110010101
0011010101101010
0011000000001110
1011001000111111
1011011111100111
0010110010100111
0010111100010100
1010101111000001
1010011100110111
0011011110010100
1011011011000100
1011010100111011
0010100000101010
0011100100101001
1011101010010100
1011100010100111
0011101010100101
0001110101110010
1011100100101001
1011011110010000
0011100111110111
0011010110111010
1011010101101100
1011011001001001
1010110110000111
0011100011101000
0011001011000001
1010110000000011
0011101001011100
1011010100000110
1010011011010110
1010110010001010
1011100010111011
1011010010000010
1011010001001100
0011101000001000
1010001101011001
0010110000011010
1011010011111111
1011100100001011
1011000111110110
1010111101000001
0011101010001110
1010101010100010
1011101011110110
1011011100000100
1011100100110111
1011010010001101
1011100010101010
1011011010110010
1010111001110011
0011010011101101
0011010011000000
0011001100111010
1011000000000001
0011100000100000
0011000100010011
1011100011110010
0011011100000011
0011100111000011
1010100011101101
1011001000010000
1011001011011111
1011000100111110
0011011001100111
1010011111010101
0011011101010101
1011101010100001
1011010001001001
1010110110110000
0011101001010011
0011100101011110
1010111011000111
0001111101000000
0011010111101010
1011100101011010
0011001001100010
0011010100000110
1011000100001001
1011100001110111
0011010011101000
0010100011110100
0011101011101011
0011100101111001
0011000010011111
1011100110001011
0011011110100101
