1010011010010011
0001100101101001
1010100110010001
0010010110110100
1010101000111110
1010100001000110
0010100001101100
0010100101100100
0001110000100010
1010110001010001
1001010111111001
0010101101101000
1010100001100111
0001101111110111
0010101111100010
1010110000111000
1010100110101111
1001110000110000
0010110000101000
0001101001001110
1010011111101000
1010110010101001
1010100100000111
1010101000001010
1010100000101111
0010100011111101
0010011100010000
1010110000011000
0010101010000111
0010011000111001
1010001000011110
1010100001100100
0010110010010100
1010100101111010
1010001001110001
1010000010010011
1010110101001010
0010100111111011
1010000101001000
1010100100100001
0010100111000001
0010011010001000
1010101000110110
1010011110001110
0000110110111100
1001110010101001
0010101000110001
0010101011101010
1010010110000101
0010100111000011
1010101010001011
0010011100101010
0010110001100110
0010100110111111
0010101001011100
1010100111100101
0010010100111111
0010011100000101
1010011100100110
1010001100110111
0010100101001110
0010010111001100
0010000001001000
1010110001010110
0010011110110111
0010010010000010
0010100010010000
0010001100101100
0001101101000011
0010110010101001
0010101101010100
1010110000110100
0010010101001100
1010100010000101
0010110111011101
0000110110000110
1010011000011110
0010000101100110
0001111001110111
0010100111100101
1010011011100001
0010110001100110
0010010011001100
1010011101011110
1010101011111101
1010011111011110
0010110011110011
1010010010001100
0010101010000110
1010010001111101
1010001001000110
1010100101010011
0001110000111011
0000100100101001
0010100110001111
1010001101000000
1001101010011010
0001100111101100
0010010011110010
1010101111010101
1010100100000001
0010100101001000
1010010101101011
0010011101001110
1010010100010001
1010101110010001
1001101101111110
0001111110011010
1010101011000101
1001110110101010
1010110001110000
0001011001000000
0010011110101010
0010100100110101
0001101111101100
0010100010111000
1010100100010101
0010101000001100
1010011000101101
0010101000000001
1010100010101010
1010110011110100
0010101110000010
1010100100111000
0010101011011011
0010011101101110
0010000001011101
1010100010111010
0001101000011001
0010110011110111
0010110010100001
0010011101010011
1010101001010110
1010100100101000
1010011100010000
1010000101100001
1010010110111011
1000111001110011
0010100100110000
0010010011101001
0010001110011110
1010110011000011
1010011010110110
0010010110011011
0010101001000000
1010110000011000
1010010010101000
0001111110001101
1010101000111010
1010000110011111
1010100000100100
1010101001011110
1010100101011111
0010011000101100
1010100011000011
1010101001000111
0010100001100010
0010011011000000
1010101001010110
0010000011010100
1010010110010000
1010011110110000
1001000101000100
0010101011111010
1010101010110000
0010000001111001
1010010001010100
0010100000000100
0010101011000000
1010010010010000
1010100001000100
0010001101110101
1010000110101000
1010101001100101
0010101000011111
1010000000000111
0010000110100100
0010100001000001
0010101101000101
0010010010001101
0010101001100001
0010101100101100
0010001011001001
1010101111010101
1010010000100010
1010100101100110
1001100000010111
1010100011110111
1010010011100000
0010011000101010
1010110001100100
0001110100011100
