0010101011001011
1010001000001101
0010110010000011
0010011000111010
0010110101100000
1010100100101001
0010010000110111
1010111010100000
0010000110101010
1010100001010011
1010110010010110
0010110110111110
1010100111000000
0010101010101001
0001110001000000
0010110001011100
0010110010111111
0001110001111011
1010100101000000
1010010110011001
0010010000000001
0010100110101111
1010100011100010
1010011100010111
1001100000100000
1010110011110001
0010011001110101
1010111000111001
1010000000011111
0010110000110000
0001011011101001
1010100001010100
1010010101100000
1010010100111100
0010110000100000
1010100111000101
1010010111010101
0010100000111001
1010110101001110
0010110010111000
0010100111101100
1010111000101100
0010000000111011
0010110001110010
0010001001101111
1010100100100111
0000100000101001
1010110010110110
1010011011111001
0010110010010001
0010110001100011
1010101010111111
0010011011111110
0011000101011111
0010100011110011
1010010101110111
1010101010100011
0010000001001101
1011000010001110
1010010110001010
0010110000100110
0010101110000011
0010110100110110
0010001011111000
1010100000000001
0010110001011011
1010110000110111
0010110110011101
1010000011100000
1010110001010110
0010010101001010
0010001001111101
1010100111011101
1010110001100010
0001111010000111
1010001110000110
1010000111100010
0010110000000011
0011000101011000
0010101000101000
0010101101111011
0010101110100001
0010110111110001
0010101101101111
1011000101001000
0010010110110010
0010101101111100
0010100111110100
0010110101000011
0010110101010011
1001111111100101
0001110011100111
1001111111101111
1011000101100001
0001010010000110
1010001110001000
1010011001000011
1010110100010000
1010100100111111
1010110000110011
0010100110011101
0011000001001101
0010010011011110
1010101100011110
0010000101110010
1011000101001111
0010011101011111
0010100010110001
1010110011101011
0010101010011111
0010010110001011
1001101111101000
1001111101110010
0010010100110110
1010111001010110
1010001111001010
1010010010100011
1010100101110100
1010001001011001
0010001100110100
0010110000001011
1010101110110011
0010010001101100
1010101001101100
1010110101100100
0010100001110001
0010101001110001
1010100111010110
0000110001100000
1001000000111001
1010100110110110
1010010001101111
0010110010011111
0010111001101011
0001111001110010
1010110100101111
0010100001000010
0010101001110101
1010000001011001
0010001000000101
0010111000001111
1011001111001010
1010011000011001
1010010011111000
0010101000100010
1010101010100011
0011000100001000
0010110011100011
0001111010001011
0010011000011101
1010010001011011
1010101011010010
1010100110110100
0010100000111101
1010110011001010
1010111000001010
1010110100111100
0010100110100110
1010001000111000
0010000011101101
0010100011000000
0010101011100011
0010100101110100
1010110000111100
1010100111100001
1010100100111010
1010110011001110
1001111010110011
1010100000001101
0010110010010100
0010110001111100
0001110111111101
0010110011101000
1010100101101111
0010110011110000
1010101101000110
1010100011100100
0010110100111001
1010100011000111
1010010111000100
0010001001010100
1010101100010011
0010100100110001
0010110001100101
0010011110000010
1001111110111101
1010000110111111
0010011000100110
1010011100000011
0010011111001010
0010011100110101
0010011010001101
