0010000100011100
0001111000101110
1010101101111101
0010101100100000
1010011100000001
0010101110000111
0010101011010110
0010101100011100
1010101100100011
0010011000100100
0010110000111000
0010100110111110
1001111101111101
0010010111111001
0010010011100100
1010010011010011
1010001001100001
1010100111111110
1010101010111010
1010010101110110
0010011011110100
1010010100010010
0010011110010101
1010010001111111
0000011111101110
1010010010010000
1010101101011000
0010011111010110
1010110001000111
0010110010010010
0000101111111011
1010110000100011
0010000011010111
1010100111111101
0010101110101010
0010100110011111
0010101111010110
0010100011000011
1010001110100000
0010100100010100
0010100101100100
1010010111001110
1010100111000011
1010100001010000
1010000110011000
0010100100010010
1010101100001111
0010100011110011
0010001101010011
0010000100011100
1010110010000111
1010100101100111
0010101011011111
1001111001100011
0010110010100111
1010010001111110
1010100000001101
1010110000010100
1010010011100011
1010011111011010
0010010000111001
1010001011110110
1010100110000001
1010100100110001
1010010010101000
1001110101000111
0010000111000001
1010101000111101
0001110110101110
0010100100001001
1010001010110100
0010101111111111
0010001110001100
1001111000110110
1010101001011000
1010110001110011
1010101001100100
1010101101001010
1010110000001100
1010110000010010
1010010110011100
1010010111111100
0010000010000110
0010110001110100
0010011000001001
0010001011001011
0010001110010111
0010011001000000
0010100001101010
1010101101010111
1010100100011010
1010100101101011
1010011000010100
0010000100000000
1010110001010011
1010100101011100
0010100110110001
1001111100110111
0010011101000100
1010011111010000
0010100100001001
1010101000001011
0010100001111011
0001010111000010
0010101111111000
0010100000111100
1010101110111010
0010110000111000
1010001101010010
1010110010011011
1010110010100101
0010110001011111
1010101110001110
0010011111100100
1010011000110000
1010110000101111
1010010100001111
1010001110100010
1010100011111011
1001010100111011
0010100111011111
0010101000100101
0010101000110001
0010001001010110
0010010100001010
1010110000001111
1010000110010011
1010110010000010
1010011100111011
1010001100110000
1010001011110001
0010101101001001
0010101110111001
0010101111011000
0010101101000110
1010100101101010
0010110001110111
1010101001101000
1010100100001010
1010011110101101
0010110001010110
0001111011100111
0010010111111100
1010000101110001
0010101011001010
1000101110111000
0001111000000101
1010110011110011
0010110001110110
0010000111001000
1010010010110011
0010100001000111
1010100101110011
1010110001110110
1010100101010001
0010100111000110
1010100110010001
0010110100001010
0010011001010010
0010010100100101
1001101100111101
1001111011110011
0010011011110111
1010000100010110
1010101111100001
0010101110001110
1010001011001110
0010100011100001
0010110001110100
1010101111010111
0010011111101000
0010100100101001
0001010111100001
1010101001101011
0010101111110000
1001111010110011
0010011010101011
0010100111001100
1010110000111011
1010101111101110
1010100000101001
0010011011100000
0010000101100011
1010100110110001
0010010100001101
0001111111100101
1010101111101100
1010101000111110
0010010100011111
1010100110110100
0010110001000000
1010100111101110
