1010100010011010
0010101010100111
0010001010100100
0010010011101001
1010001010010101
1010010110001110
0001100110101111
1010100010001000
1010110100100010
1010101011011001
0010101001100011
0010100100001011
0010100111010011
0010101001000001
1010001001111001
0010100001111101
0010000010101110
0010100100011011
0010010111101110
0010010001101010
0010100111111110
1010101011110101
1010111100010101
0010011110010000
1010000100000101
0010110001001001
1010100010100001
1010110011001110
0001110011000101
1010001001001110
1010100010010110
1010000011111100
1010100111010100
1010011111011101
1010101000000000
0010110000010000
1010100010100001
1010100001001000
0010100100000010
1010011110011000
1010001010111011
1010100001000111
1010100010011110
1010110001000000
0010111000001110
1010011001110001
0010100011110000
1010101010100010
0010101111101110
0010011101101111
1010101100011001
0010101010010000
0010100001000001
1010100000011111
0010101001111110
1010100001101111
1010000010011101
0001101111101111
0010000001111101
0010001101100001
1001100111101000
0010000011001101
1010101001110110
0010010001000000
1010001110001010
1010010011000001
1010010000010101
0010110011001010
1010100011010100
1010110010001000
0010101111101011
1010110000111001
1010100101110010
0010101100000111
1010101001100100
1010100011111100
0010000111000001
1010100111011111
1010100101010001
1010110011101110
0010010011110100
0010110000011001
1010000000110000
1010011101110011
0010001110111100
1010011101010011
0010101011101101
1010100101011001
0010110110010101
1010011111001101
1001001001101100
1010100100110111
1010101010111111
0010010001001100
1010101001010010
1010100100101011
0010100011101001
1010100000010000
0010110011101001
1010110000110101
0010100011110000
0010010101100011
0010101010001010
1010101101100000
0010011000011111
0010100110111000
0010000001011101
0010010001000011
0010100101000110
0010110000010000
1010010001110001
0001101100010111
0010111000101111
1010011110011100
1010100001000101
1010011110110011
1010010001101001
0010110100111000
1010011111001000
0010100000101000
0010110010001001
1010110101000010
1010100001010000
0010101011000011
0010100100100111
0010001000001000
0010100111111011
0010001101000100
0010100011001111
0010110000001101
0001110111110001
1010100001101001
0010001000000111
1010011100111100
1010001111010110
0010001000111010
1010101000101011
1001001000011010
0010101011001000
0010010111100000
0001011100110000
0010100101000011
0010100000111101
1010000010110000
1010011010010100
1010011101000011
1010110010011000
1010101100111101
1010011001011101
0010001011110010
1010110011011011
0010101000000001
0001110010110011
1010010001111000
0010001101111110
1010100010100000
1010100111101011
0010000011011011
0010110110000111
0010100010110001
0010101111100000
1010100000010111
0010001011011000
0010010010001110
0010011101100011
1010010110011111
0010110111001101
0010110101101101
0010101101100100
0010101001001010
1010110011100110
0010011010101100
1010011100001101
1010010011011001
0010010111111111
0010100111110001
1010010011111001
0010110101001001
1010100110101000
1010101110111001
1010101001111111
0010100000110100
0010110000011101
0010110001110001
1010010111011000
1010110101000011
1010011110110001
0010110100110001
0010010101101101
0010110000011111
0010100000100111
1010100000110011
