1010100011110100
0010010000010001
0010110010000000
1010011101001011
1010110000101000
0001000111111010
1010001010011111
0010110001110010
0010000011010110
1010011111000100
0010100101110100
0000110010000111
1001110001010111
1000110010110011
1010001010010000
0010011001110110
0001111110101011
0010110001000000
1010100000110110
0010110110000010
1001110000111100
1010011011001010
1010001000101010
0010011101010010
1010110000011011
1010110000101000
0010100101001010
1001110111000011
1010010100001000
1010110001101001
0010101000011111
1010101101001100
0010001100000011
0010110010000101
1010110010001100
1010101001001010
1001110101001001
0010110010001011
1010101100110101
0010010011111001
0010001001010001
1001111111011100
0010100001100100
1010010000011011
1010011101010111
1010101010011001
0001101010011111
1010110001001001
1010001100111010
1010101001001111
1010101000100100
1001111100101110
0010101010010110
0010110000101011
0010110101011100
0010110010000110
1010110010101001
0010100011011000
1010100111100001
1010110000001010
1010010010110011
1010010100110100
0010101001111001
0010100000111001
0010100001100011
1010100000101010
1010100100110011
0010000101110001
1010100000011100
1010001111010011
0010101101001111
1010100101110100
1010110000101110
0010010001101000
1010011010000101
1010110011000000
0010100111001100
1010101000111011
1010110000101100
1010011010010100
1010110000010110
1010010100110000
0010000000011010
1010101010000110
1010010001010010
1010001001011011
0010100111100100
0010100100010111
1010001100000010
1010010001000101
0010011011100100
1001100111000000
1000110001100111
1010101001001111
1010110000110010
1010100100110001
0001010111111100
0010101110110100
0010100000001111
0010100100100100
1010011010000111
0010110100110111
0010100011100111
1010010001100100
0010100000111001
0010110100100110
0010100010100110
1010010101000000
0010000100001001
0010011110101110
1010100001101010
0010101101000011
0010100000111000
0010011101000111
0010010110110001
1010001000010100
0010110000110110
1010100100111011
0001001101000100
0010100111101001
0010100100010101
0010101010101110
1010101000111011
1010101000011101
0010101100011010
0010101000110011
1010101001101110
0001111001000010
1010100110110010
1010100101010100
1010100101011011
0010101111110000
0010110001001101
0010101100100110
0010110000100010
1010110000011010
1010101101011011
1010100011110011
0010101010111010
0010011110111000
0010110011000111
1001111100100110
1010100001000100
1010100101110100
1010101100111000
1001111010101011
0001111100000010
0010110000001110
1010100001110110
0010100001011011
0001100010101101
1010101100100100
1010101100110101
0010010111110110
1010001110011101
1010110001111001
1010110000011000
1010010011010010
1010110010110011
0010110000000001
1010100110001011
1010101010111101
1010001001011101
0010011010000110
1010100110011101
1001110011110011
0010101010000001
0010100111110101
0001101000110101
1010110010000000
1010001010101001
1001101110010110
0010100011011111
0010101000100011
0010100011001110
1010110000010101
0010010010011000
0010010010111100
0010100111001111
1010100000110001
0010101000000101
0001011001111010
0010101010110011
1001101111100101
1010100000100110
1010100110000111
0010010110100000
1010001110011101
0010100001010000
1010011000111010
1010100101001010
0010001000001110
