0010101101110011
0010110010000110
0001010010101110
0010110000100101
1010110111011111
0010100100011100
0001110101011011
1001111000000000
1010110001101000
1010100100001111
1010100000000110
1010010110010111
0010101010000111
0010100100011001
1010010010010111
1010101000110001
1010001011101011
0010110100100010
1010100110101001
1010100100100001
1010010000010011
1010101101000010
0010001100111100
0001110000110010
1010101001010011
1010110000011001
1010010010110010
1010110111001010
0010011100100011
0010010111100000
1010101010011111
1010110000110110
1010100011000101
0010011110111110
1010100011010101
0010011000010001
1010011100001110
1010011111110000
1010100010011011
1010011001010101
0010101011011111
1010011000101001
0010001100110111
1010100011011010
1010100000100000
0010011101001001
0010000111110110
1010100101100000
1010011110010111
0010100001000010
0010110000110011
1000111011011001
0010100011111011
1010100100010001
1010110001100000
1010110000011000
0010100010110111
0010101100100110
1010010100010111
0010101000011000
1010101001010101
0010001001110001
0010110100101011
1010100000101111
1010100010010110
1001111011101011
1010101101001110
1010011010101101
0010011100011001
1010101111011111
0010010011001001
0010100100000001
0010000010011110
1010010100001100
0010101110000000
0010000000100101
0010010001110110
0010110001011110
1010101000100100
0010101011010011
1010101001111011
1010010100110101
0010001110001110
0010100100110010
1010001000110111
1010001110000010
0010110001110010
0010001000001110
1010101011001010
1010101100000110
1001111111000011
1010101100010100
1010101010110100
0001010010110000
0010101101100101
1010000011100001
1010110010101001
0010100010101010
0010110111101010
1001111110101001
0010010101000100
1010001110000001
1010110001000110
0000110100111010
0001100000011110
1010001110000111
1010011101111100
1010100010001001
0010110000100011
1010011110011111
0010110101010100
1010111000011100
1010110001101110
1010110000111100
1010100111010000
1010011001110010
0010010110101110
1001111000100100
0010101100001100
1001111010101011
1001111100000010
1010100111000101
0010011011110111
1010101011100110
1010100100110110
1010001101000011
1010110010011001
1010101011001011
1010101111101001
1010011000100110
0010100100110101
1010011000101110
1010101010010001
1010010110000100
0010101011000101
0010101110010111
1010100010000110
0010100001101011
0010100010111110
1001110000010100
0010001111000100
0010101011111111
0010100010100011
0001111101100110
1010101100011000
0001010101110001
0010101110010010
1010010111010110
1010110111010101
0010100110101111
1001011011010101
0010101001010101
1010110111001100
0010100101101111
0010101101111001
0010010010101100
1010101010111100
0010010110101010
0010110001011101
0010011100000001
1010101001110000
0010110001001001
1010101110001110
1001011111010010
1010110111011100
0010010011001000
1010010110111100
1010101000001100
1010101101101000
1010010001110100
1010100101101000
0010011100110111
1010110101001000
0010011100110001
1010001101011000
0010010001011101
1010010101111111
1010011100001100
0010000001100100
1010001011110010
0010100010111000
1010111011011010
1001110001111100
1010011010100011
0001110110101001
1010100110011011
1010110011101100
0010101111011100
1001101101010110
1010101010101101
1010111001111001
0010010010000101
