1010101000101000
0010011100011010
0010100110010101
1010101010110100
0010001001010110
0010100100010000
0001101101111000
1011000110111010
1010110010110000
1010111100000110
1010110110001011
1011000011000000
1010100001100000
1010010001110100
0010100110111100
1010101111111101
1010111110001111
1010111001001001
1001110010011001
0010101000101001
1011000011000010
0001100100110000
1011000000010111
0010110011111001
0001111111100011
1011000010111010
0010110100000110
1010111000011001
0010101000001100
0010011000010001
0010101001000101
1011000100000010
0010011000000001
1010110001110100
1010110001110110
1010110101000010
1001111111101011
0001111011101100
0010110101101011
1010010101110111
1010011001000101
1010110010101000
0010010111010010
0010101000111100
0010101101010001
1001111000000010
0010111110000111
1010110001100110
0010001101011010
1010010010011010
1011001000011011
1011000111011100
0010100010100001
0010110100101100
1011001010010101
0010011110010110
1011000011101100
1010010011100000
1010111100101110
1011000010000100
1011000110101000
1000111000010101
1011000100000110
0010010011110001
0010101001000011
0010101101011001
1010011110011101
1011000100000011
1001111000010110
1011001000011100
1010010100011100
0010101001101011
1010111100001011
0010010010101101
1011000100010000
1010011100010100
0001011110001101
1010111001100000
1001111001001001
0010100011011101
1010100011111001
1010100110110111
1001100011000100
1011000001010110
1010100111010001
1001110100011000
1011000011011010
0001110101010010
0010101001001110
0010101000111110
0010100110000110
0010010100000010
1010001000111100
1011001001010111
0010001100010101
0010001101001010
0010100111010111
1011001001100101
1010101100100101
1010110010110101
1010101000101111
1010011100101111
1011000101111011
0010000001110000
1010100011110010
1010111110010100
1010100000101110
1010110110011111
0010100011000000
0010110001000001
0010011110101101
1010011111011000
0010010001010101
1010010111010111
1010111000011111
1010100001011010
0010100000001110
1010011000101001
1011000011001111
0000110011100100
0010100100010001
1011000011100101
1001001100110100
0010000011110100
1010000101100010
1011001000001010
1011000001000111
0010011100011011
0010001100101110
0010100010000010
1011001100110100
1010111010001000
0010011110011011
1011001000010111
0010011010011001
1010110010010100
0010001010110110
0010100011000011
1010000000111001
1010100100101110
1011000101010000
1010100001011101
0010100111111010
0010101100100111
0010100111111100
0010110101101010
0010100000111010
1011010001101011
0010100010100101
0010000111011110
0010010000001111
0010101111000100
0010011010001010
1010000011100100
1001100011001101
0010011001111001
1011000000110000
1011000001111000
1010111110110000
0010100001001010
1011000100001111
1010101001001110
0010101111000100
1011000101101101
1011000011011111
1010101111110101
0010010101100110
1010010011001110
0010100111111111
1010110110001000
0001110011011001
1011000000000101
1010100000000011
0010100011111011
0010010111101001
1011000111000001
1011001100010111
0010110101000110
1010110011110101
1010111110111000
1010001100100110
1010111101000000
1011000001101000
1001111010101111
0010101011001011
1010110001101001
1001101001100010
1011001010011110
1011000001010101
1010100001111011
1010000101001110
1011000010110101
