0010010001001011
1010101100100101
0010010101110100
0010100101001011
1010101101110101
0010001100011011
0010100000000101
1010101000000101
0010101100001111
1010101111110110
0010000011001001
0001111001010011
1001111101101000
0010001111001100
1000011011010101
0010010111111011
1010110001000101
1010011011001011
1010101011111111
1010110001111000
1010100011011010
1010101101100111
0010011010101010
0010110010110010
0010010011010101
0010011000101100
1010100010111100
0010110010110101
0010100100110110
0001101001110110
1010001011001100
0010100110000101
1010000101110110
0001110001000001
0010010010111001
1010100101000101
1010000111010011
1010101110011011
0010110010011000
1010100001011001
0010000101111110
0010010000101110
1010000100111001
1001111101100011
0010100110100100
0010110000000101
0010101000101111
1010010101001011
1010011010000000
1010101110111000
0001100100010000
1001111111001011
1010100111100111
0010011100101000
1010101010101000
1010100001010101
1010100011101001
1010100101001111
1010001011001011
0010101111010011
1010101111111010
1001111111100011
0010010000001000
0010100011100110
1001111011101111
1001000100100111
0001010111001110
1001110101111011
1010001111111000
1010101000000001
1010010100001001
0010100010000010
1010110001101111
0010100101101000
1010101010011001
1010011110010111
0010010001010100
1010101001110000
1010101000111000
0010010011101100
1010010100100111
0000101011010010
1010011010010101
1010100010010011
0010100001101110
0010010100000111
1010010100000001
0010110001101100
1010011011101000
0010101001111111
0010011100011110
1010110001111000
0010011011010010
1001111000110101
0010010001011101
0010000100100001
0001110011000000
0010011111111001
1010010001000000
1010101001010110
1010110011100010
0010110000100010
0010010001100010
0010010111010110
1010101010110111
1010101000110101
1010011011110011
1010100011001100
0010110001101011
0010001010110000
1001010010111011
0001111111000010
0010010001100110
1010101111000110
0010100100010100
0010001111010000
0010000010000110
1010100010010011
1010011111010011
1010100111000001
0010110000111110
0010001000011100
0010110001110100
0010100001100111
1010101110001111
0010001111111111
0010010100010101
0010110010100001
0010100011011100
0010100110010111
1010011010000010
1010101000011110
1010101110000100
1010000111000010
0001110100110010
1010101000001100
0010101010100111
0010010011010111
1010011001001100
1010100101111001
0010001100011110
0010100010110011
0010101000000000
0010101111010000
0010100001001101
1010110001100100
0010111000100111
1010100000010111
0010010001110001
0010100101011100
0010101111001011
1010100010001001
0010001111111111
1010110000101010
0010010011111001
0000111100010010
1010100010000111
0010101100011011
1010101001001000
0010011010111000
0010000111101011
0001000100010100
1001100010111000
0010101101010100
1010110100010100
1010000000000110
1010100001100100
1010110010101111
0001111100100100
1010101001010111
1010101010001010
0001111011010001
1010100110110011
1010100010110010
0010110000100110
1010101110101001
0010101111100111
0010011000100101
0010100000101100
1010100101000001
0001111000010000
1010101100000000
1010000000010001
0010001111010100
0010100101010111
0010101110010101
0010110010100000
1000101001110000
1010100001011100
0010100110010010
1010011110010111
1010000101110011
