0010101111011010
0010101010101001
1010100011010110
1010000001011110
1010100111110101
0010111000010001
1010001000101000
0010011001100111
0010000000111001
0001110000010100
1010101101010100
1010011101010111
0010101001011010
1010101100110111
1010100001011010
0010011011000000
1010100101100101
0010011000110110
1010100001000111
1010101001011111
0010110001111110
0010101111101011
0010000001000001
0010010011001011
0010100100100101
1010101101100000
1001101011001011
1010001111001010
1010011101101100
0010110010110111
1001101110101000
1010101011110101
1010110010001111
1001101100000110
0010101000011010
0001111101100001
1010011011100001
0010110110000111
1010101110011110
1010100101001101
1010001000111110
0010100110100001
1001111011000111
0010111001001101
1010110000000100
0010101101111010
1010000100010110
0001100001011011
1001011100111111
1010000110111000
0010010100000001
1010100001001010
1010101111101000
0001110011010000
1010110000101000
0001000111000011
1010101000100000
1001011010010100
1010011100110111
1010101100011010
0010011100110011
1010100011111010
1010110010011110
0010011000111110
0010000000100010
1010100011110010
0010010111100110
0010011000000000
0010101101111110
1010000100111001
1010110010000001
0010011100000110
0010100110000010
0010110001100001
1010010011111001
1010011111001001
1001010110100011
1010000010011100
1010001001010001
0001100111111011
1010101010011010
1010011001000001
1010101011100101
1010100100000111
0010100111011100
0010011110010010
0010110101011101
0010100010100011
1010010111010100
0010110010011110
0010010011101110
1010000111101011
0010011100000000
0010110001000001
1010100101111111
0010010011101000
0010100110001101
1010100110001100
1010110000101110
1010010000011111
1010011101011010
0010110010100101
1010011110011000
0010100000111000
0010110010101001
1010100010100101
1010101001011010
1010100101001011
0010011111001111
1001110110010000
1010010011010001
1001000000111111
0010110010111011
1010100110100011
1010100000101101
0001110010110010
0010100010111100
1010110011100010
0010011001011010
0010110001111010
0010000001111101
1001111011000001
1010100111000100
1010110001001111
1010101100000010
1010110100010000
1010100101111101
0010101000101110
1010110010010010
0010100111001100
0010100000001010
1010100100110100
0010101001111010
1010011110110100
1010001010011110
0010010110110000
1010010011010111
1010110000011010
0010100101010110
0010010101111010
1010001100100110
0010110111001010
0010110001111011
1010110000000110
0010011110001100
0010101100000111
1010000110100101
0010101100001111
0010001000010100
0010100001000100
0010110001011101
0010100111101000
0010100010011111
1010101101000010
1010110111011011
0010111001100110
1010101100001010
0010010110011001
0010101110001010
0010011011010111
0010101111100000
1010100011000011
0010011000001111
1010110000100100
1010010001010001
0010110101111111
1010101010000100
1010100111100010
0010101010000011
0001110111011111
0010010001110010
1010100110100110
1010011010111010
1010000011000101
1010011111001011
1010011100100010
0010000100010101
1010001110101011
1010001110011010
0010110001101101
0010010000000101
1001110000110010
1010000111011010
0010101101111001
0010010010111101
0010100000110001
0010110001000100
0010010010011000
0010100001110111
0010100111010101
1010100011110100
1001111000011010
