0010100011110001
1010000000111000
1010011010010001
1010011101011011
0010010100010111
0010101011010010
0010100000000011
1010110001101110
1010000101011000
0010100111000000
0010101111100100
1010110111001110
0010010101110111
1010110010100111
0010110011011100
0010101110000100
1010101101000000
0010010000011100
0010101101010110
1010010001000001
0010100000001101
0010100101111100
1010001001110110
1010011001010000
0010100001101001
0010000000011001
0010000101100010
1010011100111001
0010011101011000
0010110010110100
1010100110001001
0010110100101111
0010111010111100
0010101010100011
0001011111101101
1010101100111100
0010000000000001
0010101010010010
0010100010010000
1010010100001100
1010110001100000
1001111111110111
1010001110100011
0010001011011001
0010000010100101
0010101000001100
0001111001111010
1010000110101110
0010110001110111
0001110100001001
0010100110101001
1010010100100111
0010011110000001
0010001111110000
0010011110111010
0010100101101010
0010010111000111
1010011101111000
1010000100001001
1010110011101100
1010100111110011
1010100010000110
0010011000010101
1010100001110010
1010000010101101
1010100010001001
1010100011001111
0010110000001010
0010110011100000
0010001110000111
0010000111001010
0010010111101000
0010110101000001
1010110010011100
0010100100100111
0010000100110011
0010111100011100
1010111000110001
1010110100111000
1010110100111011
1010001111011111
1010111100101011
0010110010101000
0010100101111100
1010111011001001
0010010001010000
1010010111111000
0010110001111101
0010100110011111
1010110100100111
1010110100011001
0010111101000101
0010110110011111
0010101010010100
1010100111110101
1010101010110111
1010100110001001
0010011110101001
1010110010010110
1010100101111101
1010111101011110
0010010110011000
0010110111011100
1010011110010101
0001111111110100
1010101110010110
0010101011111000
0010100110111000
0010001100010100
0010000110110100
1010010000011000
1010011100001000
1001111101001001
1010111101011011
0010111000100010
1010010101100000
0001010001001110
0010111110011100
0010100001000111
1010110100110100
1010100100101011
0010011010110000
1010011100100100
1001101001110000
1010101110000110
0010001110001110
1010010000100001
0010001010001010
0010100010101111
1010010100110011
0010111000100111
1010101101001111
1010100001100010
0010101000001011
0010101111011110
1010000110000101
1010101110100010
0010100110000001
0010110111011011
1010111101011011
1010011111000011
1001001001010101
1010010010011110
0010001111100011
1010100010001100
1010011110011101
1010110010001001
1010110010000010
1010001100101011
0010110000010100
0010011111111001
1010010101111110
1010100011100110
1010010100011001
1010111001111001
1010110100000110
1010100100010111
1010110101110110
0010101111111000
1010100101010110
0010110111001100
1010011010101100
1010000110001011
1010101100010011
1010100011010111
0011000010111001
0010011001000110
0010010001110100
0010110111000110
1010000100011000
1010111011110000
0010100101111111
0010110110001000
0010101100100010
1010110010000011
1010110011000101
0010111000101101
0001101010111000
0010110110001100
1010101110011010
1010101100110001
0010101011011100
1010101001011001
0010001100010011
0010100011011001
1010101111101011
1001100001101010
0010100001001001
0010110001011011
0010011011101010
0010010000110110
0010100101101100
