1010110101001101
0010011111011100
1010100010001011
1010111000001011
1010101010100011
0010110100011010
0000100111011110
1001110100100111
1010011010010101
1010110011010110
0001100100000110
1010010010010111
0010110010000100
0010101001101100
1010100011011000
1010011111000101
1010011011100011
1010001111111000
0010101000110000
0010101001111111
1001111110001010
1010100000001110
0010101110001001
0001100001001001
1010100001101111
1010101010001111
1010010101000111
1010101000001111
0010001110110100
1010110000111100
1010101101100111
0010101111010110
0001010000101110
1010100010101111
1010101010100101
1010001000100010
0010011100110100
0010111011000111
0010110101101100
1010110101001110
1010011000010000
0010010000010100
1001111101111111
0010110001110000
1010011111101110
0010110011000111
0010011010010001
0010110110001010
1010100000100010
1010011111001100
0010001111000011
1010011111110000
0010000101101100
0010101000011100
1010100100100110
1010100111001011
0010101110100011
0010110010111101
1010100001101010
1010110000000001
1010110000101111
1010011100001011
0010000010100111
1010110011011000
0010001001000100
1001110011111000
1010110000010110
0010000100110000
0010100011010100
1010011110011011
0010101001111010
1010011100000110
0010011011011011
0010011010110011
1010010010011000
0010111000101001
1010101011001110
1001110110000110
0010001011100011
0010100000101100
1010011011011100
0010101111010100
1001110100011111
1010101100111010
1010110011010001
0001100101101011
0001110011101001
0010010010001010
0010100011001011
1010011110000110
1010101001001011
1010011110000101
1010011111111101
0010011110010100
0010100100100101
1010101111011010
1010110111100010
0010000001011001
1010100111101100
0010110110001101
0001101111100111
1010100111100101
0010110000100001
1010100000111001
0010101001001001
0010100100110001
0010110001010001
1010101101110001
0010110001100011
1010110001111101
0010000111011101
0010100010001111
1010100110010000
1010011100000100
0010010100011100
1001100110000000
0010000101101001
1010010001001101
1001011011110001
1010110101001110
1001111111000001
0010100101010001
0010010000100101
0010011110100100
0010010101100100
0010011000000100
1010101110111110
1010101110110001
1010100100010010
0010101010001100
0010000001100010
1001110101011100
0010100100010111
0010100011001000
1010100000000110
0010110111010101
1010011111100101
0010001111110101
1010101000110000
1010110101100001
1001111111010011
0010000101011011
0010101111001100
1001111011011000
1010100101010001
1010100010011111
1010001011111111
0010100100110010
0010100111100001
1010001101110110
0010110011010111
0010010110100111
0010100001110111
0010011001010010
1010100101110010
1001111101100011
1010110001000011
0010100000011000
1001101110010101
0010100001101110
0010010000011111
0010101001111011
1010110110011101
0010101000110000
0010110101000110
1010011111111111
1010101111101100
1010100100001000
1010011100001001
1010100101011000
1010010101011001
1010011001001011
1010100100110110
1010011011011110
0010101101110001
0010100000001110
0010010100111110
0010000110101011
0010010011101000
1010110000010001
0010011011000101
0010101001110110
1010110101111111
1010011011001101
0010110010111010
0010100000100110
0010101110000101
0010110011111010
1010010011000111
0010101100100011
0010011100110011
0010100000111111
