0010011101010001
0010100010010000
1010010110001101
1001111111001011
1010111100010001
1010100111101000
1010110101111001
0010011101101001
1010101000110001
1010111001010010
1010100100101001
1010100000001101
1010010011010000
1001100000100011
1010100111000111
1010010010111110
1010110011011011
1010110001101101
0010000101101011
0010011111001100
1010111010000000
1010110101010110
0010100000111100
0010011100010001
1010010101111110
1010000001011100
1010011101101010
0001101000000000
0010100011001011
1010110010111010
0001100111001111
1010110000001110
0010010100001011
1001101000101100
0010100110100101
0010000011010001
0010010010000010
1010010100110010
1010000000010100
1010110101000110
1010110101100101
1010100011111100
0001111100000111
1010100111111101
1010110100101100
1010110100000001
0010011011000011
1010110101001101
1010100111101110
0010101000010011
1010010000100010
0010000011110011
0001111100100110
1010101010011010
0010011001101110
1010100111001011
1010110010011001
1010001101101111
0001110001110010
1010010101001101
0001101100010010
1010100010111000
1010011101110010
1010010111010010
0010010101011100
1010101010010011
0010010110000000
0010100101111110
1010101110101111
1001101111111001
1010000111011010
1010110010001011
1010110101110101
1010100110101000
1010010111100000
0010100010100010
1010110101101101
1010110100111000
1010110001000001
0010011111011101
0010011000001000
1010101111110100
1010101010111100
0010100011000001
1010100000111111
0001011010001001
1001111100100001
0010101001100000
0001110101011111
1010010110101110
1010110101111001
0010010110010111
0010100001101101
1010110110111110
1010011010110000
1010101101101001
0010010101010000
1010110001000101
0010100001011110
1010111000110110
1010100100101001
0010010001011011
0010100111000001
1010110001000110
1010011001010101
0001101010111001
1010100001110001
1010111100111001
1010000000110101
0010000101011011
1010000111101110
0010011111000001
0010100111000010
0010011110111101
0010001110000010
1010101111101110
1001111010010111
1010011001011010
1010100101100111
1010100010111100
0010000101000110
0001101000011100
1010100100001100
1010100110100010
0010100000001111
1010111100011111
0010010010011011
1010101010111100
1010100011110010
0010100001000100
1001111011111010
1010010010001101
0010011111010010
1010101101011111
1001100010001001
1001111110000100
0010100011011010
1010100000101010
0010101000100110
1010000001010001
1010111010010011
0001100010011100
0001001001100010
0010011010010011
1010101101001000
1000111000001101
0010100110111101
0010011111111001
1010011011101010
0010011111001100
0010100000101111
1010110001000110
1010100110100100
0010100011101000
1010110001011000
1010110101100101
0001111110111110
1010001011101011
1010101110100110
1010011000000010
0010011101000000
1010110011000000
1010001001110001
1010110010101110
0010001000010001
1010100110100101
1010111001010101
1010111000100000
1001111001001001
1010101101101101
1010100001101011
1010101111101000
1010101000000001
1010100100100101
1010011100010010
1010110011000110
1010110110101110
1010011001000011
0010001011001010
1010100001101111
1011000000101100
0000110111100010
0001111101110100
1010101101001011
1010110101000111
0001110001110100
1010100001110010
0010100110001011
0010000010011110
1010100000000011
1010000110101010
1010010001001111
1010100110110001
0010100111011001
0010011001000001
1010101111011011
0010001101011001
1010110101011110
0010100110010011
1010101110010110
0010011110001011
0010001101111001
0010100011000000
0010000110001111
1010101000000101
1010100010101010
0010100101111000
1001111100111000
0001101110110101
1010000111110100
1010101110101110
0010100101100101
1010100011000000
1010110110101100
1010010110111111
1010110111111111
0001110100010111
1010110110110010
1010010011001000
1010101110111100
1010110110011010
1010101000100000
0010011011111001
1010001011011010
0010011110101100
0010101001100001
1001010010010000
0001000100001110
1010100111100111
1010110111010000
0010011111011110
1010101001010011
0010100100010011
1010100000110001
0010011111011000
1010110010101101
1010101111111001
1010000010110110
0010011100001001
1010010100011000
1001000100010001
0010011001111110
1010101000010100
1010011000000101
1010110111111100
1010110110001101
0010010010100110
1010100110011100
1010011000101001
1010111000101111
0010001001111000
1010010111001000
0001111000001001
1010101000110100
0010011111001100
1010110100110110
1010101110110010
1010100010001110
1010111001001100
1010011000100010
1010110011101111
1010110000011101
1001111110110100
0010001000000100
0010010011011100
1010100001110100
0010010010110001
1010011111011110
1010100111010100
1010110000101100
0010010010010010
0010100001110100
1010110101110000
0010010111110011
0010101011101101
0010100010100010
0010000111010111
0010010110101100
1010110010101010
1010110010111111
1010100000010110
1010110111001111
1010100011110000
1010101101011010
1010110011100000
0010011100110001
1010111000111100
0001101110100010
0010101001000100
1010110010100011
1010000110110001
1010000100011010
1010001000001011
1010000010111110
1010101000001100
1010011100011110
1010101110010100
1010011001000010
1010010101011010
1010001010001011
1001110000000001
1010101001100010
1010110010001110
1010101100110111
1010011111111010
1010100101100110
1001110010111000
1010001000001101
1010101001001111
1010110001110111
1001001111101010
1010110110100100
1010100001010100
1010011100101100
0001010100000111
0010010100001010
1010101001101111
1010000110010111
0001110001100000
1010110011010011
1010100111111100
1010011101111011
0010000100101110
1010101010001111
1010100101101000
1010100011010000
1010110100100010
1010011001110010
1010100011101111
1010110000111010
0010101010010111
0010010010100110
0010011110001100
0010001000010001
1010100000010000
0010010001110110
0000111010101000
1010110101000101
1010110100011101
0010010011001101
0010000011001101
1010100111011001
1010110100111101
0001100001011001
0010100010110000
0010100001110110
0010000100000000
1010000101000110
1010101001101110
1010100110100101
1010101000010101
1010001000001001
0001111101111000
1010010101101001
1010110010011000
1010110111101011
0010101100101100
0010001010010101
0010011011110000
1010000110001100
1010011110001100
1010011000100101
1010110011110111
1001011000101111
0010100001001011
1010000100101110
0001110110101110
0010100110110000
1010100110011001
1010110100000001
0000011011010011
0001100011001101
1010110110001011
1010101000010010
1010000000000000
1010011100100011
1010001100110111
1010100100001101
1010011100100110
1010101100001001
0001101001000100
1010101111010010
1010110000000010
0010101001001011
1001100110011011
1010101010110000
0010001010000011
1010010010111000
1010101101100101
0010011011101101
1010000100110100
0010001011011010
0010010000100100
1010110000001010
1010101110111110
0010000101010111
0001010111011111
0010010111011110
0010010110000001
0010011000011010
1010110001011000
1010010110101110
0001111010001010
1010011010100011
1010100111111100
1010110010100000
1010100100010111
0001101100111001
1010100101100000
1010011111101011
1010101101110000
0010011000110110
1010100110011010
1010100111101000
0010100001010011
0010101010000110
1010110010000001
1010100011101100
1010110011000100
1010100001111101
0010011011111001
1010101011110000
1010110101111000
1010110111110111
0010100001000101
0010011110010100
0010010010000101
0010101010110100
0001111010110000
1010010010111101
1010110101000000
0001011110010110
1010110111010100
1010110011111100
1010001100000110
0010100110001010
1010100011010101
1010110100101000
1010011001110110
1001111000000000
1010110100101000
0010100011101000
1001110110100010
1010000000001011
1001100101111111
1010101011001011
1010110001100101
0010011111101100
0010100100010101
0010100010111001
0010000100001110
0010010100001111
1010011100111111
1010100010011100
0010100001000111
1010011100001000
1010000111000110
1001101001010101
1010100101000000
1010100111000000
1010110100110101
0010010011001100
1001010101111110
1010101111001110
0010010000000111
1010101110111001
1010101111111110
0010011110110100
1010000010001011
0010100010011010
1011000000001000
1010100111101001
1010100111110100
1010110111010110
1001110101000100
1010011001001100
0010011110111010
1010110011110111
1010100101100010
1001101100001101
1010110101000010
1010100110001111
1010110000101101
0010100110011101
0010000001101110
0010010111100001
0010010100010011
0010101011100001
1010110100011000
1010110101000110
1010111100010000
1010000010001100
1010101111001110
0010100100110101
1001000111010111
1010110011101110
0010010001100110
0010011000110100
0010100010000111
1001111001110000
0010010000001100
1010110100000111
1001111111110111
1010110001111110
0001000010001100
1010010101111010
1010100010101110
0010100111011111
1010100101001000
1010111001000000
1010110010000011
1010001001100011
1010110001000011
0010100100110111
0010010100000001
1010011010101001
1010101000010011
1010100011000111
0010010110010111
1010110101011010
1010110101011001
0010101010111000
1010011011000000
1001110011110111
1010011110010111
1010010110010101
1010100010011000
0001011110011001
0010010100110000
0001111011110001
0001101001101011
1010000010111000
0001101101110000
1010100010000100
1001110000101010
1010100100011101
0010011100011100
1010100100010010
1010110010111111
0010100100000001
1001110111110111
1010101011001011
1001111010101110
0010010011111101
1010101000011110
1010010011001001
1010101000111101
1010110010001010
1001110011000011
0010100111001001
0001111010001101
1010101111101011
1010011111001011
1010011010001110
1010100000001101
1010111010011011
1010011110111111
0010010011010110
1010100101101001
1010110010100100
1010100011101010
1010111001000011
1010110000100111
1010110111000001
1010000011000100
0010010011010010
1010101010001010
1010110000011010
0001011111011001
1010100111010111
0001110010110011
1010001010011110
1010001001111101
1010110111001001
1010110000001001
0010100101000100
0010100000010110
1010101001010100
1010000111011000
1001110001100100
1010100000011111
0010100101101011
1010101111100001
0010001010101100
0010011110101001
1001111011100100
1010101111110010
1010110001011101
0010000100100000
0010000011001101
1001110011101101
1001011010011101
0010011010101001
0010100000000001
1010100011001010
1010110101111011
0010101001001100
1010100101110110
1010110001100101
1010101100101101
1010101101100111
1010101111101001
1011000001010101
1010111000111001
0010101000100001
0001111010111101
1010100010010001
1010110011010000
0001111001001000
1010100110101101
1010101100010001
1010111010000001
1010011000010011
1010101111010001
1010100111111111
1010110000010100
1010100100010111
1010100010011011
1010110001010111
0010101000101111
1010011000011100
0010100011110000
1010011100100110
1010101010111001
1010101011111001
0010010110101010
1010110111010100
1010100010011001
1001111010111000
1010110001101100
1010010011000011
1010110001010110
1010110101000101
0010000001111100
1010111000010101
1010100011100010
1010101001011000
1010110001100110
0010100000001101
1001011111010001
0010011000100001
0010100011001000
1010001110100001
1001111111000011
1010111001110011
0010100010001011
0010101001100101
1010110011101001
1010101100011111
1010010000001110
1010100100110011
1010100101011111
1010100000000100
1010110001001111
0010100100110000
0010101111100111
1010110010010111
1001111100000101
1010001110111100
0010000110100011
0010011000110100
1010011011110100
0010100100111010
0010011110011111
0010000001101100
1010110001110100
1010110110101000
1010110001011111
1010100111110010
1010110010000000
1010010011000111
1010110100001001
1010101001001011
1010010100011010
0010010111001111
1010110000110110
1010111100001010
0010101011101110
1010000101100101
1010110101111101
0010100111010000
0001110100010110
0010100100100000
1010100111100111
1010101000010100
0010010111010000
1010101000111101
1010100110000111
1010101111001110
0010010001000001
1010011101001010
1010010110010111
1010101001001111
1010111000000001
0010101001010010
1010100110111011
1010100110101011
1010110100001001
1010110011000011
1010110000011111
1010111001000100
1010110011001110
0010011101010011
1010101000111100
1010101111000001
1010110000101111
1010000000000100
1010010101011111
1010111010011011
0010100111000010
0010010100000010
0010101011010110
0010001001100011
1010110001001001
1010111001101101
1010011001101100
1010110011111000
0010001110110111
0001100010011111
1010011110010001
1010100111000011
1010100100111010
1010110011011011
1010110000101000
1010110100011111
1010100101000000
1010100110111001
1010100101111110
0010010010101111
0010010110100111
0010011000100101
1010110001100111
0001011001110100
0001101010011110
0010100101101110
1010110001100010
1001101011010101
1010100011000000
1010110111000110
0001111101011001
1001111100100010
1010010011100101
1010101101100110
1010110001100100
1010110101101000
0010010110010001
1010001110101111
1010101110000011
1010101000101010
0000010010011101
0010100010000100
1010110011010010
1010110001110001
1001110110000100
1010110001010011
0010000110000111
0010011001110011
1001001111101111
1010110101001101
0010110100011000
1000111000110111
1010010101110110
0010101000011010
0010010100000101
0010010100010111
0010010000011110
0010011111000110
1010011011000101
