1010110000000101
1010101110101100
0010010100001010
1010111010111000
1010001001110111
1000111110010010
1010101110111011
0010100110000011
1010101110111000
1010001000001001
1010001000111010
1010000010001101
0001011011001111
1010100010010001
1010110010100000
1010110001010110
1010101110101001
0000011011100100
1000100101101011
0001000110100111
1010101001000001
1010010101101001
1010111000110101
1001101001110011
0010000000011011
1010110011001110
1010101010101010
1010110000011001
1010010000111011
1010111001101100
1010010100001110
0010001101110111
1010111000100110
1010110100011100
1010001111110001
1010101010010101
0010100010011000
1010100100000011
1010010010011111
1010101000010111
1010101110111011
1010101010011110
1010001010010011
1010101001110110
1010101001110100
1010101011100001
0010001111111010
1010110101001111
1010100100001110
1010101011100101
1010100000101000
1010101001110100
1010101011111110
1001111010111000
1010000011011011
1010101011101101
1010100011011101
0010010011110001
0001100000001100
1010110100001010
1000111010010001
1010111000000110
1010101010001110
1001110101010110
0010100110000101
1010101111011001
1010110011101100
1001110001111010
1010010011000010
1010000111110011
1010010111010010
1000110001111001
1010110011001010
1010100011010100
1010110010001100
1010100001011100
1010101101010011
1010101101110100
0010011001010010
1010100111111101
1010110010101110
1010101011110010
1010010000000011
0010000111100011
1010110001100010
1010110000011010
1010110110010110
1010101110101011
1010100010001011
1001101110000110
1010011011110110
1010111100101111
1010001000010000
1010011001100001
0001111010011011
1010100011100111
1010100100010001
1010000011100100
1010010010111000
0010001110110000
0010100001110110
1001111000001101
1010010101111111
1010110111111100
1010110011111100
1010100101000111
1010001100011110
0010010011111010
1010110111100110
1001100001111101
1010110110101110
1010110011011111
1010001001110001
1010100010010110
1010101011001100
1010111010010111
1010111000101000
0001111111010010
0000001110110000
1001010010100111
0010011110000100
1010110001100110
1010111001001010
1010110100011001
1010110010001100
0010010100101000
0010000110001111
1010110111001001
1010110111110001
1010010110110000
1010100110100110
1010000101101001
1010001100000101
1010010101000101
1010010100110011
1010101100001101
1010100010000001
1010101101001000
1000111111000110
1010011101001001
1010110000001000
0010011101111100
1010101001111011
1010011001111110
1010011010100101
1010100010001010
0001110111111000
0010010000100010
1010010010011100
1010011010001000
1010100111000100
1010110001111011
1010000010001101
0001110010010110
1010110101100001
1010111001010101
1010111000011001
0010001101000010
0001111000111010
1010101110001111
1010100111110001
1010101010000001
0001100000001010
1001111101010011
1010110000101100
1010110110101100
1010110111001000
1010010100101110
1010110010011010
1010110100010110
1010011111110011
0010001111001011
1010100100100111
1010011011100110
0010001111111001
1010110001101111
0010000111110110
0001110000111110
0010000010100000
1001100010010011
1010111011011101
0001101001010010
1010000110100001
1010110001100101
1010110100111010
1010111100110001
0010100001101010
1010001001001110
1010110000111010
1001111111100010
0010100011001101
1001100100101001
1010110010100110
1010110100001001
0010010000101110
1001100110101101
0010010101010001
1010111011010111
1001011110111110
1010111000011110
0001101110001100
1010100010111111
1001110110100110
1010101111000111
1010010101011101
1010101110111001
1010010110011110
1010010010001010
1010111101100011
0010100110110100
0010011100011010
1001001001001001
1010101100010111
1001111110011101
1010100111101011
1010101001101010
0010100000000011
1001100100000100
1010010001110011
1010100000110000
1010010000111000
1010110000011011
1010001011111010
1010101000101100
0000011010111111
1010011111111011
1010010110101100
1001110001101110
0010001010111111
1010010000111101
0010010100101011
1010100011110111
1010010000100110
1010100000100011
0010011010011011
1010101101010000
1010010100101000
1010011111010011
1010110001000001
0010100000011000
1010010111100011
0010010001100100
1010111000010011
1010111100101011
0010011000011100
1010010101101101
1010010000110111
1010110100101101
0001110110001101
1001010110000001
0010000011001011
1010110110010010
1010000100111011
1010011010110000
1010101101100010
1010100001100011
0010010000111110
0001110000100100
1010100101000100
0001011110110101
1010010110010101
0010100100101100
0001100101101010
1010110111101000
1010111000011000
1010101000010111
1001110110100011
1001111101011111
1010111011010110
1010100111111111
1010011010110001
1001100010100001
1010000000011110
1010100110111110
1010110110110110
1010101111110101
1010110111000010
1010101111100100
1010101001111110
0001101011001011
1010110010100101
0010010100000111
1010110100010000
1010110111101111
0010000101001101
1010110001110101
1010100001011111
1010100110110101
1001000100001010
0010100101010101
1010011010111011
1010111001101001
1010100000011110
1010011101010110
1010111101011000
0001011001011110
0010001001001100
0010010101100001
1010110000000000
1010101100100110
1010110110001001
0001101010111010
0010000110101101
1001110001111111
1010101100111101
0010010101110100
0010010101010000
0001101011100111
1010101111011110
1010101010000000
1010101000001111
1010100010110110
0010001110001100
1010111010001111
0001111101101011
0001010110110010
1010011110100111
1010110101001000
1010001000011011
1010111001110101
1010000101100101
1010111000010110
1010100001001100
1010110110011111
1010110011111111
1001110101011101
1010110100111001
1010110100011011
0010000011111000
1010101011010100
1010110110111011
1010110011110100
1010011001000010
0010100001100010
1001010100110011
0010100100111110
0001101100000001
1010111001000111
1010101011000110
0010000100011000
0010100010001001
0010100110010010
1010111001001001
1010101010100110
1010100111111011
1010000111100001
1010110011011110
1010100111111101
1010111000101100
1010010111111011
1010100100010011
1010011101101001
1010110011001001
1010101000110101
1010011101011110
1010010100110000
1010111001111100
1010111000010000
0001011110101000
1010110111100011
1010001110011100
1010010111010010
0001110011001100
1010110101010011
1010110001010011
1010100001000001
1010101101100010
1001110110001011
1010010101011000
1001100101011100
0010011010010011
0001110010011000
1010010011110100
1010010001011000
1010111000000100
1001110101010100
1010101100110011
1010111000000100
0010010011110010
1010110101101010
1010010101100001
1010010101100110
1010110001000010
0010100011100101
0010011100101000
0010001011111001
1010010110101001
1010110010001011
0010011111111100
0010010001000011
0010001011011000
1010111000010011
1010100101011101
1010110100111001
1010000001000110
1010100000001001
0010001101011011
1010100000111100
0010011101011101
0010010001011000
1010110111001001
1010000001011110
0010000010101011
1010100111001110
0010010011000110
0010011101011101
1010110100100101
1010101110010111
1010110100001111
1010010101000010
0000100110011101
1010100111111101
0010010101011000
1010010011011101
1010111000000111
1010110001100110
1010101001000111
1010101010111000
1010101101111000
1010100101011000
0010001000010110
0010000101001101
1010101010000001
1010110010110101
1010110110110001
1010110110111000
0010010000110100
1010100011010011
1010010111111011
1010110100110011
1010111000011100
1010110010100010
0010001110001110
1010001101101001
0010011001000111
1010100000000010
0010100011001101
1001100101011011
0001001011011011
1010110011010000
1010100011111110
0010001010000010
1010101111100001
0001111100101000
1001100111111101
0010000011001100
1010110101010011
1010110000101000
1010101001001010
1010100000010011
1010010110011001
0010010000111011
1001111001100001
1010110101110101
1010010111000000
1010110111001000
1010110110001101
1010111010101100
1010111010010100
0010010010101010
1010111000100000
1010110110001010
0010001100001011
1010101000001111
0010000010000011
1010110011010101
1010101001111001
0001111011011001
1010101100110110
0010010011001110
0010000010110001
1010110100110101
1010100000101100
0010100010100010
0010010000001001
1001111100101110
1010110010100010
1010000111100011
1010110010101001
1010001000011110
1001110101010001
1010000110010111
1010110001100101
1010000101000001
0010000100100100
1010010100100000
0010010101100101
1010101111010001
0010100001110011
1010101010001001
1010111010010100
1010010100111001
0001110110111010
1010110010011111
1010110101000111
1010111010011101
1010101110101000
1010001000000011
1001000100100111
0010001010001011
1001101001101111
1001100110010011
1010100000110111
0010010111101101
1010011111011110
1010110110111110
1010101011101000
1010100010110100
1010010100110110
1010010110101011
1010101111111010
1010011000011000
1010110111010101
1010101001010100
1010110110110011
1001111110111100
1010100110111000
1010111010100000
1010110100110000
0010100011000001
0001111000111011
1010101001111110
1010110101110111
1010011101110100
1010110000011101
1010001010001010
1010101000000101
0010000110101111
0010000101110011
1000110111011100
1001010110100001
1010011000010110
1010111000001000
1010111011101001
1010101110101110
1001011011011100
1010110111110010
1010110010110101
1010110111111001
1010101011100100
0010100100100000
1010101001011010
1001010110010001
1010111001001010
1010110101110010
1011000000011110
1010100100101000
1010110000101000
1010110011011111
1001110010011100
1010010010100101
1010110111001111
1001111011101111
1010110101101111
1010100100011111
1010000011110100
1010001000010110
1001111101001101
1010100001011110
1010110000110110
1001111110011110
1010110110011011
1010100010111010
0010000000100011
0010011101010000
0001101111111001
1010110100111100
1010000100110110
1001111001101100
1010001110010101
1010101100110101
0010010001000100
0010100101100110
0010001001111000
1010110101101111
1010101111111011
0001111100100010
1010110110010100
0010100010010001
1010110011000010
1010011100100110
1010110100101100
1010111000100011
0001111010001100
1010101000101000
1010100111001100
1010101001111110
1010010011110000
1010111100011100
1010000100001010
0010001100101111
1010011001000001
0010010100000110
1010110000001110
1010111011101011
1010010100010100
1010111011000101
1010100110000000
1010010100000010
1001011101001111
1010110111110010
0010010001011101
1010110000001110
1010110001111001
1010111110010110
1010010001011110
1010101011101010
1001101010101011
1010010010011001
1010110011111100
1001110001111000
1010010010111000
0010011000110010
1010110010101111
1010100100101110
1001111010000001
1001110000001011
1010110011101001
0010001000101000
1010101111110000
0010010000000010
0010000010100110
0010100000111110
1010110100111010
1010101101010000
0010011001010101
1010101110100011
1010110100011111
1010110101101111
0010010110111101
1010100110110101
0010011111111110
1010011111111111
1010010000111010
1010010110111011
1010101110110100
0010011001010100
1010111010101001
0010011000000110
1010100001100011
1010011011111000
0010000001110111
0010100001111100
1010101000101111
1010101101110000
0010001001010001
1010010010100000
1010110010111101
1010110011001001
0010001011110001
0010011110010100
1010011010010101
0010001011110000
0001111110110001
0010100100110000
1010111000010000
1001110101001101
1010000000010010
1010110001110101
1010010100101000
1010111010010011
1010101110101010
1000100111010111
1010111001010111
1010111000000100
1010001000010101
1010010101011010
1010110010100000
1010110001100000
1010010100000100
1010110010111011
1010110000010010
1010001101111010
0010010110000000
0010010011100011
1010110100000001
1010111000100001
1010110001011111
1010110001011011
1010110111111101
1010011111110110
1010101111011101
1010110101011111
1010100100010001
0010000000111101
0010011001011000
1010001010011111
1010011100011101
1001111100011100
0010010000100111
1010100110111000
1010101011001110
0010001000100111
1010010000001100
1010111010011111
1010010010111010
1010101010100100
1010100001001101
1010100011000100
0010011001010001
1010100001101100
1010010010001001
1010101101011101
1010011111100000
1010100000110001
1010011111010011
1010101101111110
1010101111010000
0010001101111010
1010010011111011
1010101110100101
1010110010100001
1010101101010011
1010011000000110
0010010010111001
0001100000000101
1010101000000001
1010100000111111
1010110110100111
0010011110110100
0001101001101011
1010110101000111
0010010110001110
1010110010100011
1010111001010000
0010100010001111
1010110001101110
1010111100010110
0010010101011110
1010110111100000
1010110100001011
0001110001010100
1010100001100100
1010110011110011
1010111000010010
1010100001011011
1010110000111100
1001110111011010
0010100111110100
1010100100101000
1010110111001011
1010110011101011
1010100011111000
0010010111111100
1001011110011100
1010110110011001
1010010110111000
0010000110110010
1010010011111001
1010011001111111
0010000011100101
1010100101110100
1010101011100010
0010010110011011
1010100110100100
0010011101100110
0010000011001111
1010100111001001
1010110010011010
1001100011111010
1010111010011110
1010110110001110
1010011010010000
1010011001111111
0010011111110000
0010011011101001
1010010000111100
1010000001010110
