1011010100110110
0011010110010010
0011100000110100
0011011010010111
0011010101000010
0010111111011111
0011010101110111
0011000101110011
0011011000001101
1011101111111000
1010101000111110
1011010111110101
0011011000001101
0011100000011010
1011101010011010
0011011000101000
1010110001001101
0011100101001110
1010100001011001
1011010111010111
0011101010111001
1011101010010111
1011100011110100
0011010110011111
1011100111010001
1010100010001010
1011101001111010
1010111011100010
0011100101111000
1011101010000010
0011100101011010
0011010010011111
0011010110001011
1011101111100001
1011000100100001
1011010010010100
0011100110100001
0011100101110111
1011101110010001
1011101011000010
0011010010101011
0011011101001110
1011101001001000
1011010111101011
1011010111100010
0011101101111111
0011011000100110
1011011101101000
0011011111110100
1011010101101100
1011100101011111
0011010000000110
1011010101100001
1011100010101110
1011100000000000
0011100101101110
0011100100110011
1010110011111010
0011100101010111
1011101110110111
1011100001100111
1011100010001010
1011010100111100
0011100111111101
