1010010011110110
0010011010000010
1010010100110001
1010010100010111
1010011000111010
1001111100001110
1010001011110101
1010101101110011
1010010111010001
1010100000110001
0010100000110100
1010100111110010
1010100100000101
1010010101111000
1010100110110101
0001110010111011
0001110110010111
1001111010110010
1010100001010010
1010011001011010
1010001001110110
1010100100001100
0001110010010110
0010100100101001
1010110000010111
1001011110000011
1010010010110010
1001111000111010
1010010110000000
0010100111000110
0010100100011101
0010001010010101
1010010010101001
1010011000011101
0001111110110110
1010010111011101
1001101100010101
0010011000011010
1010101011001100
0010101010001111
1010010001110010
0010100101001011
0001100010010000
1010010110110101
0010100110000000
0010010001100010
1010100101100101
0010011000010000
1010011000111000
0001110101110100
0010000010101001
1001110000111001
0010010001000101
0001111111000001
0010010101101100
0010011010010010
1010110001111010
1001110111110000
0010011011110111
0010010110101111
0010100101111011
0010010011000111
0001011010010000
1010001001010010
1010000100100010
0010011010110011
1010010011111101
1010100100001111
1001001000111001
1001110001110001
0010100111101110
0010001000111110
1010000001101011
1010000111101110
1010001000001000
0010011000001000
1010010110111000
0010001001000110
0010011100100010
1010010001110101
0001111101010111
0010010101001100
1010101111011110
1010011101011111
0010010001001010
1001101011100100
1010101111110010
1010100100110000
0010010101000110
1010100111011100
1001100101110010
1010100011110111
1010011011111111
1001110000101011
1010000010110001
1001110001010011
1001101111001010
0010001011001011
0010011100010100
0001110001111001
0010100000101011
0001111100110010
0010100100111001
1010001101100110
1010101001001011
1010010110100110
0001111101001100
1010001010100000
1010100011010101
1010100001001011
1010001100110100
0010010011110101
1001100001000110
1001111100010100
0010010001101100
0010100101101101
1010100100001110
0010010100110111
0010010000111001
0010010110010000
0010011100010110
0010011110001010
0010011111000000
0010010100101001
1010100101101110
1010001001011000
1010100010011010
1010010001110110
1010101001100100
1001100101110100
1010110000001001
0010010101101110
1010000101000000
1010001100100100
0001100001100011
1010101000000110
0010100110100110
0001110101101101
0010001000100001
0010001001010101
1010000100110111
0010010100000110
0010011111000110
0010100011010000
0010101010110111
1010100000101001
1010010001011100
1010001110101110
1010101000000101
1010001001111000
0010001001100111
1001110101011110
1010001101001111
1010010100100011
1010000101110101
0010011111011010
1010100000011001
0010011110001101
0001110111110010
0010000010100100
1010101010000000
0001101111111111
1001110100000100
0010101011000110
0010101011111001
0010100000011110
0010011100010111
1010100100000010
1001100110101000
1010011111011110
1010011011111000
1010001111011110
0010011011110000
0010000001100111
1010100001111110
1010100110000001
1010100101011010
0010010100100001
1010101110011010
0001010110100010
0010000110101001
1010110001111101
0010010010010111
0001111111001000
0010010100000101
0001101001100001
1010001001000000
1001110010000011
1010100101001010
1010011000100000
1010011110101111
0010010010001111
