0001100011110000
0010011001101110
1010011010001000
0010000000000010
1010010011110000
0001101111010011
1010011100010011
1010001101000101
1010011000000001
0010000111011111
1010011011111100
1010010100100100
1010011110011111
0001001000101000
0010010101010010
1010010100101100
0010011001011001
1010011110010101
1010100000110011
1001011110110110
1010000100000001
1010001100110011
0010100000011110
1010010110011111
1010011000010101
0010001000001111
0010010011000101
0010010100110100
1001110111101000
0010010010001110
0010101000000011
1010011110101000
1010010010110011
1001110101101011
1010000011100100
1010100101001111
0010001101101100
0001101010110110
0010010011000011
1010010000101101
0010010011111101
0010100001011010
0010011100100011
0010010011100000
0010010100010001
0001111111011100
0010100100001111
1010010011001101
0010011001000100
1010101011001101
0010000011101100
1010010110100111
0001110010111110
1010010000011010
1010011110011101
1010011000110110
1010010101010010
0010100011101110
0010000011110110
1010100000010110
1010010111110111
0001111000111110
0010011010000100
0001100101101000
1010010010000001
0010001111010101
0010000101000111
1010001100011110
0001100000010011
0010010111000010
0010100000110101
1001101010100001
1001111101101101
0010000100111111
0010100001011001
1010010111111001
0010100010001101
1001111111011000
0010000011000110
1010100001100000
0010010100011110
0010001110011000
1001010100011001
1001110101110101
1010010010011111
0010100010110000
0010100101011001
1010000100101000
1010010011000110
0001110101001101
1010011101111011
0001111110110001
1010011001100010
1010100000100001
0001110100110011
0010001101100100
1001101001001101
1001110001001000
0010100000010111
1010000111000110
0010000111000101
1010010010010010
1001110001101101
1010001110011111
1010011010010111
1010010111001111
1010011111010101
1010100010011001
0010010010000010
0010011011000001
1010100010010101
1010010111001010
1010100111110000
1001101000111101
0001111001010111
1010001010110010
1001010000110011
0010000010111111
1001110000001010
1001010001100111
0010010100001010
1010010011111011
1001011110110010
1001110100100010
0010100001110001
0001010110000110
0010100110100010
0010000101100001
0010101001000110
1001110111100100
0010001100100000
1010010010100011
0010011110000110
1000111111111100
1010011011000110
0010001000011101
1010010001011111
0010100001001011
1010000111100110
1010011000001011
0010011011000010
0010010010001010
1010010100100100
1010011101111011
1010011101011010
0010100110010000
0010001100000110
0010100100111001
1010000101111010
1010101011011010
1010000000001101
1001111011011111
1010100000100001
1010011001011111
0001100001001000
1001111110010100
1010000010101111
0010010010111111
0010001100111110
1001111010100100
1010010000001001
1010010101110111
0010010100010000
0010011001100011
1010010011000001
1010010011110100
1010011000101100
0010010101110111
1001110000001000
1001111110100011
1010011100000000
0010010000101111
0010100000010101
1010011110111011
1001101101110011
0001110110001101
1010010100001100
1010011111110010
1010010011101101
0010011000001010
1010100011001010
1010010000011110
0010011110000001
0010100011001101
0001101001101100
1010010100011001
1010011011100001
0010001110101100
0010001100001000
0001111100110001
1010010000011110
0010100100011001
