0010111010100101
0010100001111111
1010110000111101
0010010000011001
0010101100110100
0010111001000100
0010100001101011
0010101010101011
0010011100101101
1010111000101000
0001100001100001
1001101110010101
1001010001010010
1010101010001000
1010011110011001
0010011000101001
0010000000100101
1010010110101111
1010011101010011
0001011100011001
1010100100111011
1010110111110111
0010101110100001
0010011001101110
0010110111010101
0010100000111111
1001111111110111
0010101101010000
0010110010100010
1001111110000110
0010110001101010
1010100001100011
0010100111100101
0010110101101010
1010101100110100
0010110011001010
1010101111101001
0010100110010011
1010010100010001
0010100001001110
0010100010001110
1010110000010011
0010110001000110
1010101101110100
0010011101100110
1010110101111111
0010101000101110
1010101010110111
1010110000000010
1010100010011100
1010000101000010
0010101100011111
1010101001100111
1010011100101010
0010010011010111
0010100000101111
0010101101001100
1010001100011000
1010000000001100
0010101010110010
1010010001100110
1010101111111001
1010100101110000
0010101011101001
1010110000011001
1010101011110011
1010010111110001
1010110011100101
1010110111001000
0010000101110011
1010011011000111
1001111100000110
0011000000100100
1010110011101111
0010010001101001
1010110100111111
0010101011100110
1010110100100101
0010110001100011
0001110111111100
0010101111010100
0010010010101001
1010110100111101
0010100110110000
0010110110001010
0010010100001000
0010100001100001
0010001110111001
1010101001010101
0010000001101000
0001110101010100
1010100101101101
1010101100011101
1010010111010101
1010110001001011
0010011011001101
1010100010100111
0010101011001011
1010100010010110
0010101000101100
0010110001000111
1001000010010001
0001111101010001
1010100011110111
1010110010111100
1010011000111010
0010011000000101
1010101110110011
0010110001000011
1010101101001110
1010100100111011
0010110010010111
0010000111101011
0010100010011110
1010101101000101
1010101011011101
1010100000101011
0010011000001110
0010110011110001
0010000111000001
1010110111110100
0010010100101101
1010101010000110
1010111010100101
1010010010001101
0010011010000110
1010101101100011
0010010111001110
0010101100010111
1010000001010000
0010100001000100
1010011000001110
0010011110000011
1010101001100001
0010011001110110
1010100011111011
1010110111110101
0010001111000110
0010100110001011
0010001000010110
0010011111010110
1001100010110000
0010011010100100
0010010001100111
1010011101110011
0010100011011110
0010011001100000
1010100010010001
1000100111101100
1010100001001101
1010011010010111
0010001100111011
1010010101001110
0010110010000000
0010010000111100
1010101110011010
1010101010011111
1010110010010110
1001111011101010
0010101000101110
0010101100111000
1010001010111100
1010101000101000
1010011000001001
1010101111100000
1010100001101110
0010110100011000
1010110001000001
0010101110111111
0010110000101010
0010100010010010
1010110100010101
1010110001011111
0010111000100001
0010110010011101
0010010111001100
1010011001000001
0010100110101101
0000111001000101
1010011010000001
0010101101111101
1010100000000110
0001001110010111
1010110011000010
1001011111000110
0001110100110101
1010110110100010
1010000100111101
0010000100100000
1010001101110011
1001110001000001
1010001000101101
