0011100000100000
1011011010100111
0010111011000111
1011001001100001
1011010001011111
1010101001111100
1011011001101111
0011101001000100
1011100111111100
0011100000111110
1011001100100011
0011101000101110
1011101000001011
1010111010001110
0011101101000101
1011011011011001
1011000100110001
1011101000000111
0011011101100000
0011011010111010
1011100000100010
0011001111111100
1011100001110110
1011100101011010
0011101001110001
1011100100010101
1011010110111010
1010101010011111
1010100011011100
1011010011011110
1011100101100000
0011001000000011
0011011101100100
1011000001101010
1011100101000011
0011101000110100
1011101001011000
0010101010110110
0011001001000000
1011100011011000
0011011010111010
1011010111101001
1011011111111010
0011100001011001
1011000101011000
0011001010011010
0011100010100100
0011100011100111
0011100010011000
0011000001010100
0011100000010001
1011100110010111
0011100001000111
1011010111011011
1011100110011010
0011100000100000
0011101001000010
0011100001001111
0011000001001111
1011100110101101
1011010110001110
1011001001011110
0011011000111101
0011100110001010
1011010000110010
1011011010101000
1011101010011100
0011100101010010
1011100110110111
1011100110101100
1011101001010111
1011011011111101
1011100101111111
1011011110100011
0011100100011001
1011100010011001
0011100010100001
0011101000101010
1011100010000111
1011010011010111
1011101000011010
1011010010111000
0011101100000101
0011101000111001
1011010110010001
1011011110111011
0011101010101011
0011010100000010
1011010101101110
0011101001100011
1011100110110100
1011000001011001
0011100100001000
1011000101111111
1011010010111011
0011010001001101
0011101001011011
1011011111101000
1011100110100000
0011010000101100
1011100010101100
1011011100010100
1011010000011111
1011011111001001
0011011110011101
0011001101000000
0011010111011100
0011100001110001
0011011010000001
1010100010010101
0011011100100010
0010101001111010
1011000110110000
1011010100101001
1011100111110100
0010110100011011
0011100100001100
1011000001101011
1011001011010011
0011000001010011
0011011100000110
1011011101101110
1011100011000101
0011010101000010
0011100011001001
1011100100110001
0011100111000101
0011011110100000
0011101010110010
1011101100010000
0011101101101101
0011001011110001
1011100110010000
1011100001110001
1011100011101010
0011011011010101
1011010001000111
1011100111010010
1011001101100101
0011000111010110
0011001000111100
1010100001101000
0010000110001111
0011000001011010
0011001000101100
0011110000001111
0011010010010100
0011011100000101
1011010100011111
0011100001110111
0010110011010101
1011011111100011
0011001011101110
1011100111111001
0011011101011110
1010001010110100
0011100001100011
1011010101101011
1011100110100010
1011100100100011
0011101000100010
1011011101110100
1011100010101110
1011100010000010
1011011100110011
1011100011011011
1011010111011010
0011101000010000
1011101001010111
0011101100001011
0010110011101000
0011010111110110
1011100110001011
1011011100111101
0011101101001101
0011100011100010
0011100100010000
1010110001100001
1011100101111010
0011010110111000
1001100011101101
0011101010110010
1011100001101101
0011011100101011
1011100101011100
1011011111000111
1011100000100010
1011001100111110
0011101000001100
0011100001110010
0011010100110110
0011101011111011
