0010011100010011
1010001110110110
0010011000001111
1010100101010100
1010111000110011
1001111010001100
0010110010100001
0010011111001001
0010110110110011
0010110110101010
0010100001011101
1010011000110101
1010010010101110
0010100110100011
1010111100111001
0010110000001101
1010111110010111
0010010101111001
0010110111010111
0010100000110010
1001101110101111
0010110101011010
1010110010011011
1010101001010101
1010101001101011
0010111000000000
0010100011101101
1010101101000100
1010100011000011
1010111110100010
1010111111010101
0010111110010101
1010011111101111
1010100100000000
1001110111100110
0010100110110100
1010100101011011
0010101101111111
1010100011100001
1011000000101100
1011000101000111
0010000001011010
1010011110000101
1010100010110010
0010101100001010
1010101010000010
0010111000110011
1010101100110111
0010110001111101
1010110110101010
0010111010101011
0010111100000100
0001111001010100
0010110001111010
1010011101110100
0010101101100110
0001101010101000
0001101011011010
0010111100000100
0010111001110100
1010111000110001
0010111101111011
0010100001110001
0010011000110011
1011000001100100
1010101110100000
1010110111000101
0010100100111100
1010111100110001
1010011111011101
0010110000111000
1010011100111100
0010111100101100
0001111000110111
0001111000001100
1010100110100110
0010101111010110
0010011010001110
0010101010111101
1001111111110110
0010111011111010
1010010101001010
1010100001101010
1010110111001011
1010100110101110
1010111010100010
0010000101011110
0010111010011100
1010100110101110
1010001111101111
0010101100000111
0010110000001110
1010100110100010
1010110000101110
1011000000101111
0010010111111010
1010010010011111
0010011011000111
0010101001100101
0010100110000000
1001111100001101
1011000000100101
0010100110110011
1001100100100101
1010010010100010
0010001110001000
1010100011101100
0010010001100011
0010111101010101
1010100110011010
0010000001001101
0010111000011101
1010100101010011
1010010011011010
0010110001101010
0010010110011011
0010110010110001
1011000000011000
0010000011101111
0011000010001001
0010111101100100
0010001110010000
0010110010011000
1010111110010111
1010110010111000
1010100010001100
0011000010111001
1011000000111011
1010101011001101
0010111000100111
0010111010100000
0010101001001011
0010000010110101
0010010011000000
0010111011001010
1010110100101111
0010100000111001
1001111101011101
1010011110100101
0000011111011000
1001111010011010
0010010001111101
1010011010000001
0001010110100110
0010100110011011
1010110100110001
1001110100101001
1010101011011000
0011000011000010
1010101000010011
1010101001001101
0010101001000011
0010110010100010
1010101010110111
1010000001111100
0010100001111011
0010110011111011
1010110001101000
0010111001010001
1010011010010000
0010100111010101
0010100110110000
1010101111100000
0010101010011000
0010010101111000
1010010110000100
1011000101111111
1010110100010001
0010001100011110
0010110011100010
1010111010001011
0010010111001111
0010011100111101
0010111111110011
0010000100111101
1010100010000100
1010000001110001
0010110001011011
1010100111110011
0010110100100110
1010100010101011
1010111011001101
1010110110111010
0010111011110011
1011000110110101
1010110111100001
0010001100111001
1010111010111001
0010101111010111
1010111101111111
1011000010011001
0010110011111011
