1010001011111011
1010100010111100
1010010000110001
0010100000000101
0010110101011100
1010100010100101
0001111001000111
1010101110110111
1010011111010110
1010100100101111
0010001010010110
1010010110101110
0010110010111000
0010011110110010
1010011000010010
1010011110001011
0010100001110011
0010010001110001
1010110001101011
1010010001011011
0010000110010100
0010100100001101
1010110011011010
1010100101001110
1010111101101110
1010010111010101
0010000110000111
1010011010001101
1010100010110111
0010011000011010
0010100100010001
1010000110101101
1010111001110000
0010110000001001
1010010111101101
1001110100110110
0010011010010111
1010011000010011
1011000000111100
1010110000100011
1010010100110000
1010110011101110
1010111110111010
1010010110011001
1010001011100101
0010011100101001
1010001101010001
0010100100110010
1010110011011100
0010100001100001
0010000010101001
1010010010110001
0010010000100011
1010000100001101
1010100001111101
1010001010001011
0010000111111010
1010100110000000
1010001100000100
0001110010001110
0010100101111010
0010010000000100
0010110010001110
1010101001010111
1010101011010110
0010110010000010
0010101001110110
0010100011101101
1010100000110011
1010110010111000
1010110101001000
0010010101110001
1010011100110000
0001111100100110
0010011100100001
1010010010001010
1010101111111000
1010001111011011
1010100101001000
0010110000000111
1010110101100100
1010101101001111
0010100101111111
1010010111001011
1010110000001100
0010100110111100
0001110101001011
0010110000011110
1010110100111100
1010101000101000
0010101001101100
1001100111001000
0010110011011011
0010101010001000
1010111011011111
0010100100100010
0010100001000010
1010010001010110
1010010100011001
1010010111100110
1001000111110101
1010100111110000
1010011000110011
1010110000001101
1010100010101011
0010101001101110
1001011010100010
0010011111010011
1010100111011000
1010101100010101
1010110010000101
1001111100010100
1010101010111111
1010011010011011
0010100111100111
0001100111000000
1010110100011001
0010011011010010
0010001100100001
0001111000111011
1010110111110110
0010100100111111
1010001000111000
1010100110110111
0010110010101011
1010000111101001
0010011011010000
1010010101000101
1010101010100111
1001110000011100
0010010010101011
1010001101110011
1010001011011101
1001111100010101
1001000100100110
0010101001111001
0010010101100100
1010010010110010
1010101101100111
1001011011110110
1010100111101110
0010001100101101
0010011101001101
0010010111011101
1010100011101101
0010000111111100
0001110001010110
1010100000111100
1010110011000101
1010111010001010
1010001110000011
1010101000110101
1010110011111000
0010001001110101
1010101100010101
0010011000011111
0010100011000010
1010011011010110
1010101110101000
1010110100000011
0010011001011001
0010100101111111
1010110111011100
1010110010010111
1010011111010011
1010101100111110
1010110000100010
1010100101011000
1010110101110001
1010011111110111
1010100111110111
1010101101101011
1010111010000010
0010110011011001
0010110101010011
1010110010110010
0010110001000000
0010101100100111
0010010000001000
0010011010100011
0010000101110111
0010101000100100
0010010001001101
0010000010011100
0010110000100111
1010110011011100
0010011011111100
0001111100010100
0010110010110011
0010100010011011
1010110000001010
1010001101011100
