0010111011011110
0010111111001000
0010011001000000
0010110001111010
1010100101110010
0001111001010111
1010110111010011
0010110100110011
0010111000111000
0010110000101001
1010111010010100
1010110010101010
1010001000111011
1010111111010001
0000101000101111
1010111000110000
1010100100010101
0010100111111000
1010111010101111
1010110110110011
1010101101111110
0010110100100100
0001111000110011
0010110000010111
0010101000010101
0010100101000011
1000011011100001
1010110100101111
1010010000101001
0010111001001000
0010101100101010
1010101101001100
1010111010110110
0010110101001100
0010111010111111
0010010110100001
1010011001101000
1010101111001011
1010010111100101
0010010000100010
1010011000001111
1010111100011110
0011000001001000
1010110010100001
0010011100001101
0010100110100011
0010111000111101
1010111011001111
1010100010001011
1010110011001100
1010101111110110
0010111100101000
0010110111010110
0010101010111100
1010111100010101
0001010111010000
1010100011111111
1010010111001000
1010101011101100
0010111100010111
0001111010110011
1010110101100100
0010110100111010
1001000000110100
