00000100
00111000
11100011
11110110
11101100
10011001
00111111
00100100
00001100
01011100
10011111
11011011
00001110
00110000
11101101
01000011
11101100
01000101
01001001
01101101
11001100
01010111
01111110
10101110
00111000
11100100
10100001
01011011
00111110
11101001
11101000
01110011
01101111
10111001
01000101
01100010
00101000
11100000
10101010
11000110
11111011
01000010
00111100
01101001
01001100
01001000
11000010
11000001
10011001
01100111
00000000
10100101
01011001
00000011
10111100
00010011
00110000
10111100
11010000
00011101
00010100
00110100
10011010
10001100
11011100
00010110
00011111
01001100
11111100
11011110
10101100
00010110
00101011
11001111
00000110
01010111
10001011
00010011
01111001
00111000
01101100
00010010
11001011
00011000
00011010
10110111
10001011
11100010
10011101
10110100
00100101
00100101
11011000
01011101
00010100
10101111
00100011
00001001
00000111
10111110
10111010
00011111
01001001
11110000
11011010
00110000
01100011
01001100
01100010
11111001
11111110
01101111
01001010
11111000
01001001
11111001
00101001
00000101
10100100
10111010
10000000
01000111
01000100
00011011
10001000
11001110
10110000
10101011
10010101
01110001
11000111
11011110
11000110
11111000
01000010
10010101
00100000
11111000
11010000
01000010
00001001
00001001
10101000
01111001
00111111
10010011
10000110
10011110
11111101
01010101
00001001
00011100
00011011
00101010
11001000
11100111
00011100
10111011
00111001
01100110
10101110
00011111
00101111
01100011
01010010
00111010
00001111
10101111
11101000
10110010
00100000
10111011
00100101
00011011
10011011
11010011
11110001
01001110
11001011
00110000
00100010
10110110
10101100
10010110
11111011
11011101
11101011
00110100
01101110
01011101
01101011
11101101
