1010010011000101
1010100110011110
0010011111000111
1010000010100110
0010110000101001
0010001100011111
0010100101100100
1010100111100111
1010110000010100
0010110001100100
1010010011100101
0010101000000001
1010010001011011
1010101100000010
1010100111010100
0010110011010100
0010100111101110
1010101100100110
0010101100110000
0010110000100000
1010100011000100
1010100001000001
0010101010100101
1010010001000101
1010010110111101
0010110011100101
0001111001001110
0001010010011010
1010100101111110
0010010000110000
0010100011110011
0010011101101001
0001110011100110
0010100010100010
1010010111001000
1010110011000010
1010101010010011
1010100110100101
1010110000011011
1010011011100111
0010100111000010
1010101101000000
0010110000010010
1010100100101101
1000000100001001
0010000100011010
1010110000011010
0010010011111000
0010100001000001
0010100101001000
1010101000010000
1010001000000110
0001110100000000
1010101100110110
1010110000101000
0001010011001110
1010101110100001
1010011011010001
1010101101011010
1010011111011100
1010001110101110
1010101011100100
0010100110110110
0010101100101001
1010101011110000
1010011110111011
1001110001110110
0010101010100011
0010100100011100
1001111110101110
1010101101000011
0010101111101011
0010100011001110
1010001011001101
1010001101101000
1010011110111100
0010110011010111
1010011110100100
0010100011000101
1010100000111001
0010110000110011
1010101000110011
0010101101011100
1010100110010000
1010101000011001
0010101101111000
1010100111000110
0010010010001011
0010011111100111
0010100011011111
1010100111111111
0010100011100000
0001111101010100
1010101110000111
1010000010101000
1010110001001101
0010100001011000
1010110011101110
0010101001010001
1010010110000111
1010100001000001
0010100011010111
0010100000111111
1010010001010111
1010011100111000
0010100010001111
1010011001011100
1010001000111111
1010001101110111
1010011111001011
1010010110110100
1010100001101101
1010110001011011
0010100110111111
1010010011101101
0001110010000000
0010110010010001
1010110001010111
1010110000111011
1010010001110110
0010101001111100
1010100011001111
1010100110011110
0010101010000110
0010100110101101
1001110001111011
0010010110110100
1010101110110000
1010110000000010
0010000010011011
0001010001111010
0010101001110101
0001100011001110
0010011010010000
1010011001100001
0010101101011110
0010100000101100
1010101100010101
0001110101100000
1010101001010111
1010100000110000
1010011001110011
1010100010000010
0001111011101111
0010010000011100
0010100000010011
1010101101001011
0001101010111000
1010100000011011
0010010101000010
0010110001000111
1010100010001001
1010100101101001
1010101111010011
1010001111010111
1010100110000010
0010100110101101
0010100101001011
0010100011100110
1010010111010101
0010100001110010
1010011110010100
0010101001111010
1010001101101000
1010011001000010
0010010110011111
0010110001010000
1010100001010011
1010101001101101
0010110001101100
1010110010111111
1010010000100110
1010101010011100
1010010110011000
0010010101010010
0010101110100000
1010110010010010
1010011010110100
1010101101010011
1010011000011100
1010100101001100
1010101110111100
0010001001000110
0010100011101001
1010101100100110
1001101011100110
1010100010100011
0010011100100110
1010100100010000
0010101011111011
0010011011101010
1010001001101111
