1010101110001010
1001100001110011
0010110001110101
1010000110111010
1010100100010111
1010110001001000
0010101011110111
1010110001011110
0010011000001100
1010011011110010
1010110110110100
0010100001001000
0010111101111110
0010100100100001
0010001110010100
0010101110010011
0010111000111110
1010000000111011
1010100101111110
1010100110100101
0010000110011001
1010110000001101
0010101011111000
0010100010001011
0010010000100100
1010111010011111
1011010110001111
1010010001011001
1010110001000000
1010000100011010
0011001000100011
1010101100011010
0010110000100100
0011001100010111
0010101100010100
1010110111101001
1010110010000010
1010110010110000
0011001111101111
0011000010001110
1010100010011101
1001111011001110
0011000100000100
1010001101111110
0011001011001101
1010011000110000
1010111000111011
1011000010001111
0010100111110001
0010101010101010
0010100101001101
1010010001010000
1010101111010000
1010011111100000
0010100011111001
1010111000101001
0010101001011011
0010101010011111
1010100000101110
1010110100110111
1010001011010001
0010101001001001
1010101011011000
1010010110011111
0010101111110100
1010100101101000
1010100100101001
1010100111000011
1001110000000000
0010100010000011
1010100111011100
0010000010111011
0010110011001101
1010110010010000
0010011000111001
1010000001101100
1010100011110011
1010110001000011
0001010110111100
1010111101001101
0010100101101100
0001110011101110
0010101101000101
0010101101100000
0001110011101100
0010101010000110
0010101101111110
0010111110111110
1010100010111010
0001111100111010
0010101000100100
0001011010000100
0010100011101100
0010010010010111
0001110101101001
0010011011001000
0001011111110000
1010101111100101
0010101100110101
0010100010110110
1010100111111101
0010101101011011
0010111010100010
1010100011111111
1010011101101101
1010111000010011
1010100111011100
0010000101101110
1010110110100101
1010001011000100
1010100011011010
1010111110101100
1010100100100111
0010010111000010
1010101000100011
0010110101101111
0010101001000000
1001110110111100
1010100010000110
0010111111111000
0010110110001011
1011001010100010
0010100011110110
1011001101001001
1011010000010110
1011001110100011
1011010010101001
0011001001101110
0010110110000011
1010111100001010
0011000100000011
1011000000111000
1011001110101110
1010110101111111
1010110110110000
1010111110111111
1011010000000110
1010111010100100
1011000000111001
0010111110011010
0011000101011011
0011000000000001
0011000000010111
0010111101111110
0010000100011110
0011000001110100
1010101010111110
0010000010111100
1010110100100101
1010110001101001
1010110001011100
0010110100101101
0010110100011101
0011000000111110
0001001110000010
0011000001001001
1010011100101010
1010101001101100
0001111010010011
0010101100111110
0010100010011101
0010100110100010
0010011011101001
0010100101000010
1010100000101000
1010110001011000
1010010101010010
0010110100010011
0010111100010011
1010101011011110
0010100011001100
0010101100001001
0011000001010101
1001111101110000
1010110101001011
0010101101010010
1010010100110101
0010001001010111
0010111001101000
1010111001010110
0010011001100100
0010010010000001
0010001000101000
1010110001000000
0001100100111100
1000001011001000
0001111010001100
1010100100010001
0010001101110110
1001100111111111
0010011001001100
1010010001101000
