0010100010101011
0001111100100011
0010100101100110
1010101100011111
1001111100000101
0010100100111011
1010100010101100
1010000101111100
0010101110001000
0010101101111011
0010100110001111
1010110001011000
0010001010001011
0010000010111010
0010100110011100
1001011111110001
0001110011100111
1010110010000001
1010011000000101
0010100000111100
0001111010001010
1010011000101101
0010100111010010
0010100110011000
1010110010000010
0010001010000100
1010110001111001
1010100010000100
0010100101101101
1010101010011010
1010101000111101
1010101010101101
1010101111110001
0010010101100101
0010100111000001
1010101011000000
0010101000111100
0010100101001100
0010101100010001
0010101001101011
1010101100001010
1010101000011000
1010010001011101
1010110000100010
0010100011000110
0010101111101011
0010011101110010
1010100010101000
0010011110000000
0001111110010000
1010100101101100
0010001100111000
0010101111111111
1010101111100101
0010000000110011
1001011101001101
0010001010101001
1010100110001100
1001101010100000
0010101101011010
0010010110001110
0010011001001010
0010010001100010
0010101000011111
1010100000110011
1010100101110100
1010000010101010
1010011110010001
0001110101000010
1010000011100111
0001101000101100
0010100100000110
1010001100100001
0010110001010000
1010100011001001
0010011001111001
0010110001000000
0010101011001011
0010100000100010
1010101000111001
0010101011011110
0010010111101011
0010000011011111
0001111001100000
0010100111100011
1010100111010100
0010101111111100
1010101001111100
0010010111010110
1010010000011100
0010011100111110
1010101110111011
1010001000100101
1010101100001110
1010001000100010
1001101001111100
1010100110100011
1010011110010011
1010100000010101
0010010001110100
1010110001011000
1010101111101100
0010100011010110
1010100101001101
1010100100001000
1010110000011010
0010011001000100
1010101000010000
1010101111100010
1010101011111000
1010101001011011
0010101101111100
1010100000000001
1010110010001110
0001111110100000
1010010111010110
0010100101110111
0010001101001011
1010100010101111
0010100000010010
0010011011100010
1001000010110011
0010010101100000
0010110001110010
1010000000000111
0010101101110110
0010101101110101
1010101111010110
0010101000011110
1010001110100000
1010100101010000
0010110010000000
0010100111101101
0010010001100110
1010011011101100
0010110010010000
1010001100110001
0010101110010100
0001010001111100
0001010010110111
0010011111101000
0010011111100000
0010101101000111
0010011010010001
0010100111001110
1010100000010111
0010101100001111
0010000100110111
1010000100110100
1010101101010101
1010000010010110
0010011000001100
1010011101100000
1010110000001101
1010101001001100
1010100100101110
0001101110111111
0010101100010010
0010001111101011
1010001110110111
0001101110001001
0010101000000110
0010011100111101
1010000111010011
1010000001101011
0010100011011100
1010100000000010
0010010000101010
1010100101110111
1001111100110100
0010011000100000
1001110100111010
1010100010110000
1010101010100011
0010101001000011
0010110001111111
1010101110010100
0010011000100101
1010011010101000
1010011001100001
1010101001110110
0001110001011111
1010110001110000
1010011100101110
0001100010010100
0010100100001110
0010101011100101
1000001110011101
0001000010011100
1010110001111100
1010100010100011
0010100110000100
