1010110101001100
1010101101110011
0010110101110101
0010100110001001
0010000110101000
1010110010111001
1010111101101001
0010100101110100
0010110111010000
0010111011101101
0010101001010101
0010110000011011
0010101001000001
0010111100110101
0010100101101011
0001110011110101
1010110011001110
0010111001100011
0010110010010110
1001110100000010
1001111010100101
0010100011001011
0010100011000000
0010111110110011
0010110001111010
1010100100000011
1010110001001010
0010101001000011
0010101110101011
1010101001010000
0010110011111000
0010110011011010
1010011010111011
0010111110010111
1010110001110111
0010110100101001
1010010011100101
1010111001011101
0010110000011010
0001111110000011
1010111010010011
0010111110100100
0010100101110110
1001111101000000
0010011100111101
1010111010001010
1010100011010101
0010011010011100
0010011010011101
0010111000110001
1010011000111100
1010101011010100
0010010101100001
1010110001110100
0010100101011010
0001011110101000
0010111111001100
1010011010001101
0010110100100001
0010111111001011
1010111100010111
0010100110000000
0010000100000000
1010110000101000
