1010101000100101
1001000011000000
1010011111000100
1010101001000100
1010000101010000
0010101001011110
0010010110011100
0010011110110101
0001011100101101
0010110000001110
1010000100110010
1010011001100100
0010100010101111
0010001000011010
0001100111010011
1001101101010111
1010101010110101
0010000100010101
0010101001010101
0010110001110010
1010100010101010
0010001111011001
1010001110011000
1010101101010100
0010010100011101
1010101111100010
1010100100011101
0001010001100011
1010100111101010
0010010111111101
1010101000010100
1010101111001101
1010101101001110
0010001001110011
1001011111000001
0010001010110101
1010011000000101
1010110001011001
1010100100011110
1000001011101010
1010100011000011
1010011000011100
0010101000101011
1010000010000111
1010101110011011
1010000001001001
0010011010111100
0010011010000110
0010001011001111
1000100010111100
1010101100010011
0010100101100000
0010100010001101
0010100110100100
1010101101001000
1010010001111100
0010100101010110
1010001000101010
1010010000010000
1010100101101101
1010100011101010
1010100010100001
1010011111011000
1010100000111100
0010101101100000
1010101001011100
1010100010000011
1001100100101110
0010101010001111
1001110000100011
1010100011000111
1010110010010010
0010100011001110
0010000010011110
1010101111111000
0010010001000101
0010011000111100
1010100110101101
0010011001010111
1010100111001100
1010011010001011
1010101000010001
0010110010011110
1010100101110010
1010110000001001
1010101011100101
0010100011101010
1001010110100001
1010000000000100
1010000111000111
0010010110111001
1010011010011111
1010101001010101
1001110101111000
1010101111010101
1010011011110000
0010100001011100
1010100000111101
1010000110001110
0010101110100001
0010101101101100
0010101000000101
0010100001110011
0001100010110011
1010100100110011
1010110001000010
0010110011011001
0010101101110101
0010110101011110
1010101000100101
0010011010100101
0001010101011100
0010110011010101
1010101001111001
1010011011100000
1010101100111100
1010100000110101
1010100001001001
0010110001010000
0010000100000000
1010101001101011
0010010100111110
0001100000101000
1001011001001111
0010000111100101
0010100100111111
1010100111000001
1010010011001011
1010101110100001
0010011010100010
1010110000001111
1010101011011100
0010011111001100
1010100111011001
0010010010111101
0010110000100000
1001100001000111
1010101001010110
0010100001001111
1000101110101110
0001111001110000
0010001101001001
1010101111010111
0010011110110110
0010101010101010
1010110010011101
1010101101000100
1010010001100001
1010011000111011
1010100100000010
0010101101110010
1010000010110000
0010101000000001
1001011110100001
1010100100001111
0010010010100101
0010101000001111
0010100011001000
0001100101011011
0010011010100101
1010011010001000
1010000010000000
1010110000110010
1001111000011110
0010011111010000
0010011111101110
1010101010001110
1010011001000011
1010010001001111
1010010101010011
1010110000011101
0010010010010101
0010011100100001
1010011111100001
0010100001000100
0010101111111100
1001101001001100
1001101101100010
1010101001101100
1010100100000101
0010100110011101
0010110011001010
1010110000110101
1010010000010100
0010100010010101
1010000000101010
0010100100010101
1001110111110110
1010010111000110
1001111000000001
0010010000110000
0010110000000101
