1010100000011111
1010110011100001
0010101000110011
1001001100000010
1010110110000101
1010110111010010
1010001110011110
0010011010110000
1011000001011011
0010000101001000
1010111001010000
1010110101101011
1010100010111111
1011001001001011
0010101000111001
1011000011010101
0010010001101011
1010111111011000
1001110110000011
1001111110000110
1010111010011001
0001111101010001
1010101001001100
1011000000000011
0001110111001110
1010110010100010
0010000101111100
1010001000000010
1010111011011010
0010011000111111
1011000111000010
1010011111100000
1010110111011001
1010010001101101
1010110000110000
1001111010101010
1011000010101100
1010111110000111
0010010011011011
1010111111101011
1010110000010111
1011010000110111
1010100100000101
1010110101011101
0010010001001000
1010111111110011
1010110010010001
1010110010001011
0010110000110001
1011000011010101
1011000001111011
1010100101001110
1010111010111011
1010000111000000
1010111000011011
1010110010001011
0010101010101101
1010111010110001
1010001111111000
1011001101110111
1010110110011001
1011000110001011
1010111100010011
1010110011010010
1011001110110111
0001011111000110
1010100110101001
1010011110000110
1011001010001110
1010110000100000
1010011100110001
1010110001000001
1010100001101010
1010110100001000
1010111110110011
1010110011000000
1010111010010001
1010110100000110
1011000111111001
1010011101110101
1010010111101100
1011001000010001
0010100100010000
1010110110111100
1010100010101110
0001100101010011
1010010001100110
1010101011111111
1010110010010111
0010110111011000
1010111000001110
1010110100111100
1010010101100101
1010010111100001
1011000000110011
0010011100001001
1010011101011000
1010101000101111
1010111001110101
0010011000010110
0010110101100000
1010101110001000
1011000110001001
1010110001101001
1010100011111011
0001110101101110
1010101001011011
0010101001011001
1011000101011111
1010101100000110
0010100000101001
1010010000000100
1010100000010001
0010100010100011
0010010111010111
1010000101100110
1010110111100101
1010100010101100
1010111101110000
1010110010001101
1010110000111010
1010001111100010
1010101100010110
1010010001101100
0001000100000111
1010101110000110
1010111101011000
1011000011000001
0010100101110001
1010101001001000
1010100000101111
0010010110100101
1010000100000010
1010101101110000
1010110011100001
1010110100101100
1001111011001100
0010100110001111
1001011110011001
0010101011000100
0001011110101000
1010101011100100
1011000111001111
1011000100010000
1011000000110010
1011001100101000
1010011110000010
0010000101100101
1010110001010101
1010100111000100
1010101011100110
1010011111011111
0010011001010100
0010011001100001
1010110000010011
1010000000100101
1011000010110100
0010001100001101
1010111001101000
0010001101101101
1010010010110011
0010010100110001
1010101101101100
1011000001110000
0010001011101100
1001100010101100
1010001001010000
1010100100010010
0001111011000101
1010011011000011
1011000010100101
1010110000001101
1010110000110111
1010110010111110
1010101100100000
0010100111000110
1010101101000010
1010100110110110
1010101010010010
1010011110111111
1011001101011100
1010111000000010
1001110010110011
1011000110011111
1010100101000001
0001101101000001
1011001001011101
1010010100101010
1010111111110101
1010110000101010
1010101010100001
1010111111110101
1011000000001011
1010100110100110
1010111000010010
1001101111110010
0001000001010100
1010111011110100
0010001011010101
1010100011000101
1010111011010000
0010101101101010
1010011110110001
1010110010011100
1010110110011110
1010011010011000
1010111010100011
0010110100010001
1011001001111010
1011001010110011
0010011110000100
1010000001000111
1010010001010110
1010111100001101
1001110010011111
1010100011000010
0001101110101101
1010101010111110
0010000000100000
1010101101110001
1010010011010011
1011000100110000
1010110011110010
1010111111010011
1010111101101000
1011000001111100
1011000010110110
1010110111111000
1010100100000000
1010110101011010
1010110000110100
1010110001001000
1011001101111000
1010110011010100
1010011011101101
0010011110110000
1010111000001001
0010100101100100
1010101001000001
1010011011000001
1011001011100010
0010010000011101
0010011011101000
1010101110000001
1010111010100011
0001110011100101
1010001100101111
1010101000111111
0010000110001011
1010111001110110
1010111101101010
1010110110101001
1010110010111110
0010101010100001
1011000000111001
1010000110000001
0010101110001110
0010101001000010
0010101010011101
1011001101110001
1010010011110100
1001101101000001
0010011100100101
1010101110000010
1010101011001100
1011000010100110
1011000100011000
1010110001001110
1011000011001011
1010111000111101
0010010111110011
1010100000110000
1011001001010010
1010110001100101
0001111100011010
1001101111000101
1010100000011100
1010111000100010
0001011111111111
1010101111100001
1010111110010001
1010110000010000
1010110101000100
1010110110000100
0001001110101110
1010010001111100
0001101010010101
0010011101001111
1010000100100001
0010101001110000
0010101011000100
1010101100100010
1010010100101111
1010011110100110
1010101101110000
1010010111001000
1011000100011110
1011000010011001
1001101000001101
1010111010101000
1010111110101010
1011000000101100
1010101000010001
1010111000111000
1010011001000001
1010101010100011
0010011001010101
0001110011110111
0010011000111000
1010110110011011
1010111010010010
1010101000100100
1010111000010111
0010010110000000
0010100100101110
1010101101001101
1011001111111000
1010010011100101
0001101000010111
1010110100001011
1011000000000111
1010110011100110
1010100000010001
0010100010110011
1010101100110101
1010100100010100
1010110110010001
1010110001101001
1011000000110001
1011010001100110
1010101010011100
1010101010001100
1010110001110111
0010000111010110
0010010100111110
1010011010110010
1010100011100000
1010000111101000
1010101110001110
1011010001001100
1001101110101000
1010011010001010
1010010011111001
1011000010000000
0010101110110110
1010101001100100
1011001000101000
1011010000100010
1010110101110000
0001110010110101
1010101000101000
1010100100001111
0010000001110000
1010110111111111
1010100100001101
1011000110011011
1010100000100101
0010000101011001
1010110111110011
1011000010111101
1010010000111011
1011001010010000
1010101011111111
1010110010010011
1010010110011001
1010100101010110
1010110111101101
1010010101001010
1010100001111110
1010100101100010
1010110110000000
1011000000110111
1010001010101000
1010111001101100
1010011111110110
1010110010000011
1010110010011101
1010111101100011
1011010000101001
1010010001000001
1011000000011111
1010111000000111
1010011011110100
1010010100101011
1011000110011111
1011000110001111
1010111100100101
1001100011001111
0010001111001101
1010101100101010
0010011000110010
1010010011111101
1010101000011010
1010100101100010
0010011110111110
1010101011111001
1010111001011001
1010111010110101
1011000000000110
1010111011110010
0001010010100011
1011000001011111
1010111010001100
1011000010110100
1010110010100100
1010010011101110
1010110001011000
1011000001001001
1010101110001110
1010100000101111
1010100111110100
1010101111010110
1010000110010000
1011000001011010
1010111011110110
1010100011111011
1010101010011010
1011010010000110
0001110100110001
1010010001110011
1010101011011000
1010100111011111
0001111001000100
1011000000001101
1011001010001011
0001111010000101
1010110101111001
1010111010011000
1011000000110011
1011001010111000
1010011110110011
1011010010100101
1010110000101111
1010110111110001
1010010111000010
1010101001111010
0010011001101100
0001111100000000
1011010000111010
1010100101001010
0010000110001011
1010110110101010
1010110100111110
1011000000010001
0010010111100010
1011010000101111
1010011101000111
1011010010000001
1010100111011100
1010011111001111
1011000010110010
1010111001110101
1010011100110000
1010101011010001
1010110011000001
0010000111101111
1010111111111000
1011000101101011
1010101111010100
1010111010111010
0010010011101110
1010100100010000
1010111111010101
1010110001000000
1010010111011111
1010100111000001
1011000010101001
0010100101011111
0010011011110001
1011000111000010
0010101100000100
1010111101100101
0010010011100010
1010100001011011
0010100001001001
1010111000101111
1010111001101000
1010000101110010
1011001100111011
0001110110011000
1010110010010001
1011000100000001
1001111100001000
1010111001110110
1010011100011101
1011000111011010
1011000100000100
1011000010100011
1010111110110011
1010100011001010
0010000111010011
1010010011100011
0001101000000100
1011001011000100
1010101100010000
1011000011000000
1010110111111111
0010010111011000
1010100101111001
0010101100011001
1010101100110110
1011000000111010
1010010111101110
1011000011100101
1010100111001010
0010100001010011
1010100111110100
1011010101010000
1010111011110100
1010100010011110
1010110111011011
1011010001000101
1011000000000010
0010001011100001
1010110100000100
1010111001001101
1010011111010100
1010000010001011
1010111101010010
1010111001101001
0010011101100011
1010111011111010
0010100111001101
1010100101100101
1010110100111000
1010010100110101
1010110011011110
1010111000100010
0010101011111111
1010100011101011
1010111101100001
0010010011011100
1010110000001010
1010101110010100
1010110001100101
1010111010100111
1010110010011010
1010111101100011
1010101001100001
1010110111000000
1010100001000101
0010000010001100
0010101101111000
1010010010110100
1010100101010101
1010101110011001
1010001101001110
1010100101100110
1010100111111111
0001100101000100
1010100100000100
1010111111001101
1010100000101111
1011010010111001
0001110111000110
1010110010110001
1011000001000100
1010100000100000
1010100001010101
1011000111001010
1010010101001101
1010000111101110
1011001011000110
1010100110010111
0010110011111000
1010011111001100
1010110110001001
1011000001010100
1010010100001111
1010100100110000
1010010111110100
1011000111101000
0010100000010101
1010110010111010
1010110111000111
1010111111110000
1011001011111010
1010111101100001
0001111011011010
1011000011001000
0010101110010101
1010110111100111
1010101100101001
1010011011001111
1010100001011000
1001110101011011
1010011101010000
1010110000010111
0001111001110001
1010010110100101
1010000101000011
1010100110100110
1011000001100100
1010101011101010
0010101010101110
0010000010101000
1001100000101101
0010100100100000
1011000110111110
1011000011011111
1010110000010100
1011000010010111
1010101011110111
1010011101010000
0001111000101010
1010100101100111
1011000001100000
1010100110011001
0001111101111000
1010111011100100
1010110011001110
0001111100011010
1010111110101110
1011000110001011
1001111110000000
1011000000111001
0010100101010110
1011000011110000
0010010101111000
1010101010001011
1011001111000010
1010111100100110
1011010000011010
1011001001111011
1010110101000101
1010110111001010
1010101000101101
1010101001011011
1010111001011101
1001100011100110
0010110110011011
1010101010111101
0010010011110010
1011001000010011
0010101001000000
1010111100110111
1010100001101001
1010110001001001
0010011110110010
1010110101011100
1010111001001001
1011000000001101
1010110110011110
1010000110101101
1010000000000100
0001110110111000
1010100000110101
0010101110001100
1010111110000111
1010010100100000
1010001001111001
1011000101110000
1010011101011100
1001110011001100
0010110100010100
1001110010101100
1011000101110100
1010111011100111
1010100110101111
1010100101101110
0010001011001111
1010111001000111
1010101000000000
1010111001001101
1010111011001100
1010111001110100
1010111100110100
1010111001001001
1011001010111100
1010101100100010
1011000010011111
0000111010000000
1010011110011011
0010010110001001
1010110110001000
1011000001100010
1010100001010011
1010110111010110
1010111001011100
1010110110100001
0001100101001010
1011000001111110
1010111011101011
1010111000101100
1010110010001000
1010110010101001
1010110000100101
1010111000110100
0010110000010010
1011000111011111
1010110101101011
1010011101010001
1011000100000001
1010111001110110
1010011101011010
1010110011100010
1010110001010110
1010110100110111
1010101100100010
1010111010111110
1011000101000111
1010100101111011
0010010101000000
1010001110000100
0000110110100011
1010010110011111
1010101111111000
1010100000111001
1010101101100101
1010010101111100
1010111001010110
1010110010111001
0010010000110110
0010011011010110
1010010000111111
1010100101101111
0010100101111010
1010001001001100
1010100110100110
1010011011110000
1010101111000101
1010110100011101
1010110101010100
0010001000111101
1010101100010011
1010110110101100
1010110011000100
1010010000101000
1010100000110110
1010100000011001
1001100110100011
1010100001000110
1010111100001101
0010010100001110
0010101001001000
0001000111100011
1010010101110100
1001101110100110
1010111101001011
0010010111110111
1010111101100101
1011000011100110
0010011000111010
1011000010100110
1011000111000100
0010101111000100
1010100010100100
1001010011110100
1010000010000111
1010110000110110
0001000000110011
1011000011101111
1010111101011011
1010110001110001
1011000101010010
1010011001000111
1010000011111101
1011000000010111
1010011001110110
0001110100101011
1010010010101100
1011010010100010
0010001110100000
1010100001101011
1010110111000111
1011000100100100
1010111011100100
0010001010100001
