1010010000010011
1010101011001010
0010110000000011
0010110000101110
1010100010110010
0010101111010111
0010101011010111
0001110110110110
0010100100101000
0010101110100101
1010010101010100
0010100101000001
1010100110010011
1010000000100011
1010110001010101
1010100010110001
0010011111101001
1010100101010010
0010101010100000
0010001101111110
0010110101100011
1010100010000110
0010001001101000
1010011001111000
1010000110100011
1010001101100110
1001111110101111
0010011011110000
1010101111101010
0010010011010110
1010100100111110
0010100110110011
0010100101011000
1010011001010010
1010100010110100
1010110110001000
0010010000011110
0010100101000000
1010101010001001
0010110011011111
0010100001011000
0010100011110111
1010011001110001
0010010111000101
1010100001111101
0010011000001000
1010001100000011
0001111011001011
0010100000010000
0010100010000100
0001110111011110
0001001100000110
1001011011101110
1001011011010100
0010100010011011
1010100110001111
0010011111001000
1010101110000100
0010000101010011
0001111001000010
0010110010000111
0010011110110100
0010010100011011
1010110110001110
1010000100101101
0010100101010101
1010011010111001
0010100110110010
0010100001001100
0010110010111010
1010101110000111
1010100010010111
0010000101111101
0010010000000100
0010100110001110
0010100101110100
1010101101110100
1010100000110100
1010101111111010
1010101000100000
1010101000000000
0010000110000001
1010011000011011
0010100010110101
0010011111110000
0010111000110011
1001000111111011
1010010010100001
0010110111000100
1010110010100001
1001111000101010
1010100000011000
0001111100111110
0010101100010000
0010000000111011
1010110111010010
0010100000100001
1010101010000101
1010010111100100
0010100111101100
0010010111100110
1010010010010010
1010101001011001
0010100100001000
0010100100111100
1010100001110001
0010110000101011
1010101000000000
1010100010000001
1010001000110001
1010110001100111
1010110011101001
1010011010110100
1010011101001011
1010011000100101
0010101010111100
1010110010001001
0010101100110110
0010101011110010
1010000101010111
0010011010111101
0010100111010101
1010100000010011
1010100100100111
1010010110010111
1010100000001010
0010010110111000
1010101011001000
1010011010011010
1010101110101101
1010110100100100
1010110000110110
1010100010000100
1010011000010000
0010000001010101
1010101111011000
1010100111110111
1010001011011010
1010011010100100
0010110100011101
1010110001111011
1010011010110010
0010101011000001
0010100101111000
1010010000111000
1010110100100101
1010101101001011
1010110110010000
1010101010010010
1010100101111100
0010110000010100
1010110001111111
0010100100101011
0001111100100111
0010100010011101
0010011001001101
1010110001100111
1010110010011000
0010100101101001
1010010100110110
0010011111000111
1010011110111010
0010100100010100
1001100011011101
1010011111010011
0010110000110001
1010001011111000
1010111010101111
1001111000110010
0010011001100011
1010101000110000
1010010100100101
1000011011010001
1010010110000010
1010110001111000
0010100011110110
1010110101111011
1010100001000111
1010110101011010
0010100110100010
1010100101000111
1010011111111100
1010110001000000
1010100111001101
1010011101110110
1010101010000001
0010100101110001
0010110000000011
1010110011011101
0010110010011111
1010101010110000
1010101111011100
