1001010000011100
1010000001100000
0010100000011011
0010011101000001
1010010001001100
0010011001111111
0010011101100100
1010001000001110
1010011000001000
0010011011000101
0010100001110001
0001101100011010
1010011100001101
0010010100001011
1010110000010110
0010010101001001
1010011111010001
0010000110111010
1010100100011010
0010100000000101
1010000010000110
0001100000011011
1010011000011111
0010101011111100
1010011100010110
0001101101101000
0010001100011110
0010100001010110
1010011111101001
1010001010010101
0010100001010110
0001110000100011
0010010010101010
0001100010110111
0010001010010111
1010001000010010
1010011100011001
1010100101111011
1010100101000100
0001111011010000
0010001111011010
1001100111000100
0001111110110111
1010000111100101
0010100100011010
0010000101000111
1010101101011001
0001001111100111
1010100000011111
0010100001101100
1001110000101100
1010000100111110
1010001100000100
0010001110101111
1010100010000100
1010010110010111
1010001101111100
1001111001001000
1010100110010101
1010011110111111
1010000011001101
0010100101100010
1010001010001010
1000100111110100
1010100101011000
1010001110000001
1010010101111011
1010001011011110
0010001110100010
1010011001000111
0010100001110100
0010010000110011
1010001100000110
1010010110111111
1010001100101000
0001011100000101
0001111010101000
1010000011100001
1010010111001001
1001111010100101
0010011100100111
0010000100000101
1010101011010011
1010011100001111
1010010111111100
1001000100011000
1010000111000000
1010010110100111
0010011000111100
1010101101110110
1010000110001000
1010100011101010
1010100010111011
0001111001101100
0010010111111000
1010000011011000
1010011100011111
1001111011010011
0010010011110101
1010101010001110
0010010001101100
0010011010001100
0010100100010111
1010011110010100
1010100011110110
0010001010010000
1001101110100001
1010011010111110
0001101100000111
0010010111101111
1001000000000111
1010100011010111
0010000010001110
0001101010110101
0001011110100101
0010100101000001
1010010000100110
1000000100010000
1010010101011010
1010100110001010
1010000001000011
0010011011010100
1001100100000111
1010010101110001
1010001101001110
1001000001101001
1010100100110110
1001100010100011
0010000110111001
0001110011011000
1010110000001011
1010101010010011
0010100101100000
0010101000001101
1010000011010000
1010000111111001
0010101000111010
1001000110010000
0001111101111111
0010010110011010
1010100101011000
1010011101101110
1010000000011101
1010001010011011
1001000001101000
1010101100110011
1010100010111000
1010110010010010
1010011110011110
1010000111110011
1010001010101110
0010011100110011
1010010011000111
0010000100010011
1010011011001100
1010001011110001
1010100101100110
0010001111011100
1001101101010110
1001100010101101
1010001111001111
0000110100111100
1010010010000110
0010000101011101
1010000000010101
0010100100111101
0010100011010001
1010101110100110
0010011000010111
1010010111001011
1010100000101101
1010011100111101
0010100000001110
1010100001000011
1010100111111011
1010100011111001
1010100101001110
0010001011101000
1010010101010110
0010000101101010
1010011111111101
1010101100110000
1010100001100001
0000101101000100
0010100011010111
1010001011100101
0010000011011100
0010010001100101
0001000110010000
1001110100110110
1010011101111110
1010100111111011
