0010100001000110
1010110001111010
0010100001001100
0010110001110111
1010101111110111
1010010111010001
1010010100000110
0010110001110001
0010001101100001
0010010000001110
0010000001010101
0010011101000000
0010010101000010
1010101110001101
0010010000110010
0010010000100111
0010010000110000
1010000011110010
1010011111101001
1001100000000100
1010101100001110
1010100000100101
0010110001100110
0010011100010101
1001111100111101
0010110000001000
1001101010110111
0010100011100110
0001110010110010
0010001100001110
0010101100001000
1010010010111010
0010011010100010
0010101011100100
0010110000110111
0010010011101110
1010100011101111
1010101011001100
0010010111011010
1001100110100010
1010001011110101
1010010100111001
1001111001111000
1010101000100010
0001000111110111
0010001000101010
1010010100010001
1010010100101001
0010101010110101
0010010111010011
1010000101001001
1010110001100011
0010010110111110
1010101001010101
1010100010001101
0001100010011000
1010010100000011
0010101110011011
0010010110010010
1010100100110010
0010101101000000
1010101001111011
1010101011011100
1010100110111111
0010010010001001
1010101010110011
1010000011110101
0010000011001110
1010011110001110
0010101001110001
0010100001011101
1010110001000010
1010101001110101
1010101000000100
1010100100001000
0010100100101001
0010100000101010
1010100111010011
0010101101010010
0010110000101011
0010110001000001
1010010111010111
0010101000001110
1010110010000011
0010001101100111
0010100011100100
0010101111001001
0001100001010110
1010101110010101
0010101100111010
0010110001111111
1010100101101000
1010101111100110
0010100110100000
0010100101100011
0001110010110001
0010011010111100
1010100001111001
1010000100101011
0010110000011000
1010010010010110
1010110100100011
0010101010011000
0001110000010011
1010100001101000
1001110001110000
0010100111000001
1010110100110000
1010100110100101
0010100101111100
0010110000111110
1010000100001100
0001000111100001
0010011010010010
0001100111111010
0010101100010000
0001101100000001
1010101010000100
1010010100110111
1010110000000001
0010011110010010
0010101010001111
0010010101011001
0010100110010100
0010101111011011
0010010001111001
1010001110001001
0010101010100000
1010101110111100
0010001110011101
0010101000111111
0010010010010001
1001100110001101
1010101000001000
1010100111110000
0010100111100101
1010101110101001
0010101101011011
0010101100101110
1010101100100001
1010101101000000
1000100010111101
1001101110001111
1010100111011001
1010101100000010
1010000000001101
0010100010011010
0010110101010101
1010001001011101
0001110011100001
1010000011110001
1010100110101010
0010110001110001
1010101100100011
0010010101000010
1010101110001010
0010010110011100
0010101111111111
0010010010010010
1010110011101001
0001111110000010
1010101011110001
1010001010011110
1010011101101100
1010110001010000
0010001000111111
0010101001111010
0010100000011010
0010100011010011
1010010101010000
0010000001001111
1010011101110000
1010100010000110
0010100001100111
0010110000100111
1010100101010100
1010111000000101
1010010110111010
1010101000000100
0010101010010000
0010100101100011
1010101000000110
0010011100101011
1010011100110011
0010100001010010
1010101111100001
1010100101110101
1010100001100100
1010001001001101
1010010100011000
1010101111001000
1001101100010001
