0001111000010010
1010110011100001
0001111111001110
1010011010001010
1001010111001111
1010100011100000
0001111000011111
0010010100001110
1010011111100110
0001101011010000
1001110110000011
1010101111100000
0010000101100110
1010110100101001
0010010110101110
1010100111110001
1010100000000100
0010001111000111
1010110001001011
0001111110000101
1010101110010000
0010010001011000
1010100101100111
1010101101011001
1010110101111001
0010000000110111
0010010001111001
1000011100100111
1010000100110100
1010100110011101
0001100000011010
1010110000110011
1010100010100111
0010000010000101
0010011011100010
1010010110110111
1010111001101110
1010100000001011
1010111001001011
1010011011100111
1010011111001011
1010110100111000
1010011000100010
1010101010111000
0001111000001010
1010111000111101
0010000101001100
1010101000000101
1010001001000000
1010010010000010
1010100100101011
0001111000010001
0010010100101100
1001111011100101
1001100111011101
1010110011101011
1010110001101010
0001100111111111
1010100010000011
1010101011000110
1010110101101100
1010101111001111
0010010011111100
1010100011101111
0010000010110101
0001111000010011
1010000111011000
1010100101010111
1010110011111010
0001010110110011
1010111010111001
1010110110100011
1010101000110011
1010111101011011
1010110001000110
1010111001000111
1010111100000110
1010110100100101
1010110100101001
1010101111011110
1010110001111001
1001000100011100
1010110010011110
1010010001010110
1010100101001100
0010100001000110
0001110110101111
1010001101110011
1010011100100111
1001011000101111
1010101101111010
1010110111110000
1010100100101000
0010011000000110
0001111100110110
1010001111101010
1010110110011111
0001111001111111
1010110011001011
1010101110110010
0010100110011010
1001011010011010
1010110001011010
1010011000110000
1010000011011001
1010110000111111
1010110010100111
1010100011001001
0010001100101101
0010011011001000
0001110000110110
1010100101111000
1010101010111001
0010000010000001
1010100111111000
1010110101110110
1001101000010111
0010010011001111
1010110011110011
1010010010100010
1010100010100100
1010101101011101
1010011011110111
1010101101011111
0010010001110100
0010001100001101
0010100001100001
1010001100111110
1010010001101101
1010011111101010
0010010110010001
1010110101010100
0001100101111011
1010010010110110
1001010000111111
1010010100001001
1010010101000100
1010101101000001
0010100000011000
0010010101111011
1010111000111001
1010101101010100
0010011010110001
1010110000110000
1010101001011010
0010100110100100
1010101001111100
1010101111110001
1010101110001010
0010011110101011
0010100000000100
1010111000001011
1001111000111011
0010100000001011
1010101101000111
1010111000111100
1010010011001001
1001110011001011
0010010001101101
0010010011001101
1001110110000011
1010100000010100
1010110010001000
1010101111011001
1010101000101000
0001110010000011
1010100001000011
0010001001010101
1010100110111000
0001110000111011
1010011001001110
1010011001010111
1010111011111111
0010100010011100
1010001011101111
0010010100010011
1010110101101110
1010101011010010
1010100111101001
1010101001011110
1010101001010001
1010101000001010
1010101010010101
0010000000000001
1010010101000010
1001101100110010
0010001000101100
1010011100010111
0010010010010011
1001011000110100
0010010110111110
1010110111010101
0010001001000101
0010011110111101
0001100010011001
1010100011110000
0010100000011101
1010111010100011
1010110010000110
1001110110110100
1010111001010011
1010110101011101
1010011011010100
1010110000111010
1010110100110111
1010011110110000
1010010001110000
1010111100111001
1010110001101001
1010110001011100
1010010010010011
1010111000011110
1010111000110010
1010111000000101
1010100101001000
1010111000110101
1010011001100011
1010111001100011
1010011011010010
1010110011000011
0001111110101011
1010110001011111
0010001001111101
1010010101100010
1010110000111100
1010110111010100
1010110010001001
1010001111000011
0001110101001011
1010100010100001
1010011001100011
1010110110110000
0010000001010110
1010100110001010
1010110110001001
0010011000010010
1010110111011111
0001110111101101
1010010001001101
0010001111100111
1010110100010110
1010110010100001
1010001001111101
0010011101111010
0010010011011001
1010100011001111
1010010010000000
0001001101000010
1001100110001000
1010010011100011
1010101000001101
0010011110000100
1010010010010001
1001010001011101
1010010110101101
1010110000001000
1010010000100100
1010110001101001
1010001000011111
1010101110011110
1010110010011010
1010110000101011
1010010010011110
1001101110100101
1010110010111000
1010000100110001
1010110111101000
1010110100100100
1010100101000101
1010100100101011
0010000100110111
0010010010011010
0010000110100101
1010101010111001
0001111010010011
1010000101010100
0010001001110010
1010110010111011
1010100010000100
1010110010010011
1010100011111001
1001100110000111
1010110111110101
0010010111000011
0010000101110111
1010100011100010
1001101111000101
0010010011101110
1010110111111010
1010100011010000
0010011000010011
1010101011000100
1010101000001011
1010101110001110
0010010111100101
0010010001101011
0010001000110000
1010100101110110
1010101101001011
1010100110011011
1010111000001110
1010110000010010
1010110101000101
1010100011110110
1010110011000101
1010110101101110
1010111001011110
1010101011111010
1010110111010101
1010100111100101
1010101110000010
1010000001101111
1010010000010111
0010001010010001
1010100111100000
1010011011001011
1010100011101111
1010111010011010
0001101111100111
0010001100100001
1010111000101000
0001100110100011
0010010011000100
1010101110101011
1010110011101001
1010100000110101
1010110101100110
1010100000010001
1010010000010001
1010111000000111
0000110110100011
1010100010010110
1010110010000110
1010110000101001
1010110111101111
0010010101111010
1010001100110100
1010100010000010
1010110101100110
1010110111000001
0001100001110011
1010110111000010
1010001100100010
0000111011100111
1010001000110010
1010110010100011
1010110000100111
0010011111011011
0001110111100001
1010110101101000
1010110011000101
1010000011011000
1010110000101000
0001111110010100
1010011000011101
1010110111000011
0010011100111111
1010111010111011
1010111000000010
1010011100101101
1010011011111010
1010110010100000
0010001110010011
1010110111000110
1010011111100110
0010001100101111
0010100101000011
1010100000111000
0010010010100100
1010110001100000
1010000000011001
1010101001100011
1001011011011000
0010011000101100
1010100010101111
1010101111001100
1010111110001101
1010100111001010
1010100010111010
1010101010010010
0010011110000101
1010101110111010
0010001001101100
1010011110001101
1001111001010101
0001000100110011
1010110000100110
1010110101110101
0010001000111001
0010010110010011
1010010100011010
1010010011100100
1010000000111000
0010001000111111
1010100001110001
0010011000101000
1010110001111011
1010000100101000
1010101110001110
1010100011101101
1010110010110100
0010001100110010
1010010001100010
1010010000101010
1010100000110101
0010010110100000
0010011100100110
1010110001100011
1010111000110011
1010110111101110
0001111110001101
1010110101110000
0001000101011110
1010011010011100
1010100010000100
0010000011000010
0001100111110101
1010011110000110
1010110000011011
0010011001111101
1010110001100010
1010110011001111
1010110000000101
1010000100111101
1010100010100000
1010101010111010
1010110110001111
1010110000000110
1010101011000000
1010101011001100
0010011000010001
1001010101010110
1010100010001100
0010011110100001
0001100110010111
1010100100101110
1010110111001111
1010000100101110
1010100001000000
1010100100100111
1010000100101110
1010100000010001
0010000100101111
0010010111010000
1010110000110011
1010100011010001
1010111010101001
0010000000100110
0010100010011100
1010110110000010
1010110010001100
1010101111111100
1010101100111000
0010001000011000
1010100001101100
0010000000011111
1010110110011110
1010110001010010
1010101000110110
0010010000111001
1010011101100111
1010000001010110
0010011001011100
1010111011010100
0010010101001101
1010100011101000
1010101001011100
0001100011000101
1010110101101001
1010110010110011
1010100010100010
1010011110011101
1010100100010110
0001111011100001
1010101110011000
1010101111110110
1010110111000110
1010110101100100
1001111011000100
0010011111100011
0010011011000011
0010011100000000
0001111001010101
0010010100011011
1010110010110111
1010101001100000
1010110001110101
1010100000111010
1010011110100111
0010010111011110
1010101111111011
1010110001100000
0010011100111111
1010110000000000
1001100011100001
1010110000010100
0010001111000011
1010110001000111
0010011111100100
0001111101001100
1010100011110011
0010011001110100
1010110010011111
1010110011001001
1010100010110101
1010100111010010
1010001110101110
1010110100000110
0001101101010010
0010011001101011
1010111001001100
1010110000000111
1010000001000001
0001111101011010
1010010110011101
0010010011101111
1010110110001101
1010001100010111
1010010010010000
1010010101001000
1010011100101001
1010011010001010
0001010111001001
1010100001011000
1010110000101010
1010010101100101
1010100110000100
1010101000111001
1010101011101011
1001111111111100
1010110101110101
1010100110010010
1010110100101011
1010111000110011
1010101001011111
1010010001111111
1010101000101100
1010000111101110
1001110111100001
1010110111001010
0010000000111101
1010001100000111
0010011000100100
1010101110010110
1010100100111110
1010111000001001
1010110111111101
1010100000110110
0001100010100011
1010110100101101
0010001010111101
0010010100000100
1010000010110110
1010010100110001
1010100001010000
1010100100101010
0010001001111001
1010110010000101
1010111000110101
1010110011100011
1010101101010001
1010011011011011
1001010111111111
1010110010101010
1010100010011110
1010110110111111
0001101100011110
0010010111011100
1010101110111100
1001101010101001
1010001011001010
1010110010011101
1010111010100100
1010110100001001
1010110010000111
0001100111010010
0010010001111000
1010001011011011
1010011100101000
1010101111100000
1010100010000001
0001111011000101
1010001001110110
1010100011110110
1010101111010011
1010110100001001
0001110101000011
1010000100101111
1010101011000010
1010110001101110
0010010110000000
0010000000100110
1010000100101110
1010000010011011
1010100111101101
0010010011100010
0010010111011100
1010110010000100
1010110001100010
1010111000001111
0010010001111100
1001110110011001
1010010101000111
1010100010101110
1010101011011001
1010110011111100
0010010001001110
1010100011010111
1010101110010110
0010010100110100
1010110010111000
1010100100010011
1010110001101010
1010001010011000
1001110001100000
1010011110001111
1001101000000000
1010101011101000
1001001101010000
1010110101110001
1010001101101000
1010011111010111
1010110001010111
1010010001001001
0010010100100110
1001001001101000
1010100101111010
1010101011000000
1010100100110100
1010110101110100
0010010001000011
1001111110101101
1010000011010101
1010110000011100
0010001000100010
1010110000010001
0010001001110010
1010110100001000
0010010001010100
1010100001010110
1010110000010110
0010000110100001
0010000000001011
1010111010011100
1010111011001010
1010101101001001
0010000011100100
1010000010001000
0010001111110100
1010101101000111
1010110001111100
1010011010001100
1001011011001001
1010100011001100
1010010001111110
1010110011101110
1010010101010101
1010111001110100
1010101000001000
1010100001001001
1010100010100011
1010111000101110
1010100001010001
0010000010100111
1010111010110100
1001111010101000
0010100010000010
0001111100001010
1001110010011101
1010010101011110
1010110101100101
1010101001101101
1010111011100010
1010011011000110
1010110001011010
1010100111000010
1010100111001011
1010011010100011
1001110011111010
1010101010101000
1010101000011000
1010011100110010
0010011011011011
1010101111011100
1010101110100001
1010110010101101
1010111001110110
1010011111000111
1010110011001111
1010110000100110
1010101000011100
1010101011001011
1010110100001100
1010100011101001
1010101101111001
1010100111100111
1010011110100010
1010010010011001
0010000000101111
1010110110011000
1010100111010111
0010011000111010
0010000000001110
0010011011110101
0010001110000100
1010110000010010
1001000010100001
1010110100111011
1001111100011001
0010001001110000
1010101111100000
1010001101111111
1010111010000111
1001111110111100
1010100011000000
0010010001011010
1010011001111110
1010100011111001
1010101101000111
1010101010000010
1010100100001100
1010110100000100
1010000100000110
1010100101101110
1010110001101111
1010110000101110
1010110010011011
0010011010000010
1010010001000011
1010111010001010
1010101111100010
1010101001001010
1010100110111101
1010100010001111
0010010111010001
1010100111100101
1010110011101111
0010010110111101
1010110001110110
1010110000001110
1010100001101100
1010101011010101
1010110110101010
1010110101101111
1010100011111011
1010001010100001
0010100000100011
0010100000100111
1010110110101111
0001010001101000
1001101111010101
1010111000111101
1010100010111100
1010111011101000
1010110010111001
1010100101011001
0010010010101101
1010110010110010
1010101001100001
0001110011111111
1010000000010100
1010101011110010
0000111101110110
1010110111000011
1010011100100010
0010100000101000
1010101001110001
1010000101000100
