0010110010010110
1010111011111010
1011000111111000
0011000000100011
1010111001110100
1010110000101100
1001100110111100
0000100110101100
0010101110010010
1010001111000001
0011000001111101
1010111110011001
0010111000101010
1010110010000000
1010101001011110
1010011011000001
0010100111110110
0010111010011111
1010101100100000
1010101011001111
0001000101001101
1011000011111000
0010100111111001
1011000001100001
1010110111111010
0010110100101011
0011000101001101
1010010001001000
1010010001110001
0011000001100010
0010001101000111
0010110101101000
0010011011110000
1011000011101001
1010110001100110
1011000000111000
0010111011101010
1011000011100101
0011000011010000
1001110100001100
1010101011000010
1010111110010100
0010111001101101
1010100110000111
0001100000111000
1011000011001010
1010101000011010
1010110001110010
1010110111100110
1010110011101111
1010100011100101
0010101110110011
0010110001011010
1010100010100011
0011000010001011
1010110001110010
1010110011001001
0010100110010001
1010001101110000
1010100010011100
0010101001100000
0010111100001101
0010111110001010
0010011111011110
