1010110010100100
1010011111011000
0010100011100100
1010100111000011
1010011001011000
0010101100011001
0010011011110001
0010001010000001
0010101001000101
1010101010101011
0010101010001101
1010000000110000
1001110111010001
0010110000110101
1010100101000011
1001000111010101
1010011001000101
1010100011010100
0010000110110100
0010010011011111
0010110001100110
1010110010101110
1010010100101000
0001111010000111
1001100111111010
1010101111111100
0010101010000010
1010101110010011
0010010110110110
0010110011111001
0010101110001000
1010110001100010
1010101100000010
1010000011101011
1010101100001011
0010100110100001
1010100100101110
1010101100000010
0010101001010010
0010000111110001
1010010110111000
0010101010001011
1001110100010100
1010101001001001
1010011110010011
0010100001100000
1010101110101001
1001001011100110
1010010000111100
1010101011110100
0010101011111101
0010101100110110
1010100011010000
1010100111100101
1001100110011100
0010101100000100
1010110110100001
1010011010100010
1001100111010110
0010110010010000
0010100010111011
0001110110101010
1010100010001010
1010110011110110
1010101001100000
0010100000011010
1010110000000001
0010011110110011
0010100011100011
0010011111000001
1010110000000111
1010000010110011
1010100110110011
0010100100111110
1010100100011101
0010101100001100
1010011011010011
1010110100111100
1001101110110100
0010101111100010
0010110000001111
1010110000001000
0010011111110101
1010110101011000
0010101100010010
0010011000010110
1010111000011001
1010101000100111
1010011110001001
1010110011111001
1010100110011011
1010010011111010
1010110011110010
0010100010101110
1010001110100110
1010101100010000
1010100010100101
1010110001001000
1010010100111110
0010011111110100
0010011001100101
0010110100111100
0010110101101100
1010001001100101
0010100001110111
1010000000100100
0010100011110101
1010011100110100
0010010111001101
0010110000100010
0010011101111010
0010100011110100
1001111000001110
0010110011110000
1010001000111110
0010100011100110
0010100100001010
1010100110011100
1010011100111011
1010100100010101
1001110000110011
1010110001011001
0010010010110000
1010101100010010
1010000110101101
1010011010011101
1001110011000000
0010100010010011
1010110011001100
1010110000001001
1010110000000111
1010010110010011
1010100101110001
0010100101100101
1010100110011001
0010011001101101
0001001011001101
0010001010001111
1010011001100111
0010001000000001
1010110011111111
1010110001100111
0010010101011111
1010001110011100
0010101011110011
0010010101011000
1001101110011111
1001111000100010
0010101000011000
0010001111110111
0010110000010111
0010100100010000
0010010110111011
1010100100111100
1010100101110110
0010010101101101
0001111110000011
1010101111111100
1010100011000111
1010100110111110
1010110010110101
1010100111101001
0001101011011000
0010010100011010
1010100000100001
1010100010001010
1010010100110001
1010010000001101
1010100100100011
0010010001101111
1010110010001100
1010101101100010
0010100010000100
0010010110000000
1010100001011100
1010101001100111
0010010111010010
0001110111001110
1010110011011010
0010110001000111
0010100111110010
0001010110001001
0010110000101011
1010101111011101
0010110010001011
0010110000111110
0010101000111101
0010110001011110
1010000010011100
0010101100000101
1010000000100000
1010110100001000
