0010101000101100
1010100111101010
1011000100001010
1010111001001011
0010110010110001
1010110001111111
1010010111010011
0010110010110101
0010001111001001
1011000011101000
0001001000111001
0010010110001101
1010110001101100
0010010111001011
1010111010100000
0001101111000100
0010111100001011
0010101110011111
1010110001010001
0010001001111010
0010010010100001
0010100100101000
0011000001011011
0010100011011010
0010011001100111
1010000110000100
1010110101101011
0010110100000000
1010111000010100
1010100011001011
0011000110000010
0010111011101111
0010000011110011
0010101110110000
0010111111001000
1010011100100001
0010100000100110
1010110010110100
0011000101101111
1010100010111000
0001110110111100
1011000001010011
1010110100000010
0010010011011100
0010100001011000
1010111100011011
0010100000010101
1010111111010010
0010100000010011
0010010100100100
0010111100111011
1010101110110011
1010110110010000
1010010111110010
0010101001110101
0010000101111101
1010100001000101
0011000101010001
1010110010100101
0010111110111101
1001101100101111
0010111101010011
1011001011110001
1010011000101011
1010110111101111
0010110110101001
1010101110010101
1011000001001111
1001110111010100
0010110100001001
0010000100010110
0010101101001000
1001001000010100
0010110010111000
1010111001110011
0010100010111110
1010011101101001
0010100011011000
0010101111000111
1010000001101000
0010011100011100
1010110011100101
0010110001000110
1010110010110010
1011000000000110
0010100000001011
1010110100001010
1010101111101001
1010101100100011
0010111111001000
0010010011000010
1011000000001000
0010110011001001
0010100111000011
0010111001010011
1010101010110011
1010100101111011
0010010111110000
1010110101001100
0001110111100101
0010110111101000
1010011000010100
0010000110110100
1010010010001101
0010110111101000
0010011000110000
1010111100010010
1010101111000010
0010111100000101
0010000011101001
1010111001110100
0010100111001011
0010100010001110
1010110100000010
1010000000000011
1010111000001001
0010010010000000
1010101011111000
0010100101111010
0010010111011101
1010111001010110
1010100001011011
0010100000101110
1010110011000100
1010110110011110
1010100111100101
1010110110011100
1011000000101110
0010110111110110
0010110010001111
1010100100101011
1010101100010011
1010101111101001
0010110011010101
0010101111001011
1001101110000100
1011000010011101
1011000100100100
1010100101100001
0010111110010101
0010011110001010
1010101111110100
1010111001100111
1010011111011011
0010110000010000
1010011111110110
1010011110011010
1010011100011001
0010110011000100
1010001000001110
0010101011010011
0010110101010001
1010101101111000
1010100100000101
0010110011010101
1010111000111111
1010100111110111
0010011101011001
0010101001000111
1001111110110110
1010111011110010
1010110111010110
0010101101000101
1010011111100101
1010100111100011
0010100100010111
1010100000011010
1010110111001101
0010111111101011
0001110100111000
0010110011100101
0010010110100100
0010101001101010
1010100000010011
1010101001010111
1010011010011010
0010101010100111
1010110010000001
0010001010000010
0001100111001010
0010010001100100
0010001100001110
1010011111001011
0010010100110000
1010101100100001
1010100110100111
0010110010111101
1010010011101100
1010110010001100
0010010111000101
0010101011100011
1010110111101110
