1010000110010100
0010110000001011
1010010011010010
0010100101101110
1010110011111111
1010100000100010
0010101001110111
0001110100010001
0010110010000010
0010100111010001
1010101001011010
1010001110101000
0010100111101001
0010110000011000
1001110011110010
1010110000100000
1010000101111000
1010101100110101
1010101010100010
0010101111010000
0000011001111111
1010100001001000
1010001001101001
1010110001100101
1010011100110000
0010000101100010
0010011100000010
1010101000000011
1010001001100101
1010001001010000
0010101000101111
0010101011000111
0010101101100110
0010001101111110
1010101111010000
0010110010110011
0001110111000110
1010110010011011
0010101000101110
0010110001100100
1001110100001001
1010011000011011
1010110000000001
1010110000011001
1010110010111000
0010101001000010
0010101001110111
0010100011010111
1001101000100100
1001111011011011
0010001101111100
1010010011100010
0010011110110001
1010010110110111
1010100101110100
1010110010001101
1010100110111011
1010101101000101
0010100000110000
0000100111001010
1010101110001001
1001100011100100
1010101100010011
1010110000111101
0010110001100000
1010101100001110
0010101010101010
1010011010101010
0010000001010111
1010101010101011
1010010111001100
1010100101111110
0010001001110011
0010001001111100
1001110101100011
1010010010001101
0010100000111100
0010010000100010
1010101110101000
0010100100101100
1010000100100001
1010101100100000
1010001011101010
1010010010000100
1010000111000110
1010010001000100
1001010110011011
1010110010011010
1010101100011010
1010110000100010
1001011111111000
0010011111111010
0010010101001000
0010010010001000
1001100000100110
1010110001101010
1001110100010111
1010100011000100
0010100111110100
1010101111111110
0010000111010100
1010110010010000
1010110010010000
1010100110101011
1010101111111010
0001110010111011
0010010111000010
1010011100100111
0010100100010001
0010011001011101
1001111101111001
0010011011110010
0010101110111111
0010101100110000
0010101110000100
1010101011011101
0010110001110010
1010100001000010
1010100101001001
0010101011010011
1010010011001000
1010010000101111
1010010010101001
0010101010010100
1010101111011100
1001110110101010
0010100110000111
1010110010001100
1010101010011111
0010010011111011
0001111100101010
0010000111000101
1010100101000110
0010100110101010
0010101001000101
0010100001000100
1010101000101110
1010010000011011
0001111011000110
1010010001011011
0010101001101111
1010000000011110
0010001000010000
0010001111110101
1010011001010110
0010101001101011
1010011010111101
1010101000000111
0010110011001000
0010011110100001
0010011111101000
0010010000010100
0010101010001111
1010100001010000
1010100001111001
1010100101101011
0010100011101110
1001011000111100
1010000111110100
0010101101111001
1010101101100010
1010100100001101
1010011101110000
0010011101101111
0000011110011111
1010010000110101
1001110011101110
0010100011101001
0010101011011111
1001100101110101
0010010010110010
1010110011110110
0010001000010111
1010010011001000
0010011011000100
0010110011100101
1010001101000000
0010011011001000
0010001011001011
0001100000111110
0010010111100100
0001111000101100
1010101010110110
0010110001110010
0010011011111010
0010110011010011
1001110010011101
0010110010011001
0010110011000100
0010101001001000
0010010100110100
1010101011000110
