1010101000010000
1010101110010010
0010100010001000
0010100010001110
0001110011001010
1010011010010011
1010100111001110
1010000111110110
0010100010001111
0010010100011101
0010100000110101
1010001110001000
0010100100011100
1010100111111011
0010011011101101
1010100110111110
1010101100110010
0010101001111001
0010100010101100
1001001000100010
1010000001000011
1010110001000001
0010010011010101
1010010101111111
0010000101011101
0010101010011000
1010001101111110
0010011110110000
0010100111000101
0010010010011001
1010011000111001
0010101100001100
0010110101110001
1010010001000100
1010100100110010
1010100101010000
0010101010011111
0010000010100001
0010011001001111
0010101000001111
1010110001011001
1010100010101000
1010010100101110
0010101110101010
0010100010011000
0010100000000111
0010011101000100
1001110001110000
1010101010100110
0010101010101111
1010110101001111
0010100101010101
0010101101100100
0010100101110110
0010011010110100
0010111010010001
0010100001011001
1010100111110001
1010010111011001
1010100100101011
1001100011000101
0010010110110000
0001100111010101
0010101000100101
0010010101110010
1010000011100100
0010100011001100
0010100110110100
0010110100100110
1010111000000101
1010010110010101
1010110110011111
0001010011000000
1010100001001101
0001100000111101
0010100110010111
0001100101111000
0010110001101111
1010101011001101
1010010111001110
1010110000010011
0010010100000101
1010101010111011
0010110110010000
0010100101000001
0010011100000101
0010110100101101
1010101111010011
1010101001001101
1010111101101100
0010000011010101
1010100011101111
0010110010111010
0010101100000111
0010101010001000
0010100010010000
0011000001010101
1010000101110001
1010100110101110
1010100100011010
1010100110010111
0010101001101101
1010010101011110
0010110001011100
0010101100100010
0000101111100110
0010000101101011
1010101011111011
1010110000100001
1010000001011111
1010011011111101
0010011100100001
1010110100001110
1010100110100011
1001110010110011
0010110110111100
0010000010111110
1010111011110011
0010100001011100
0010010110001100
1010111110110000
0010110101011011
1001101110011100
0010000100111110
1010101001111100
0010101000111010
1010100100001110
1010000100111110
0001010010111101
1010010100101001
0010100010011101
0001110111011101
0010011100111110
1010101001111010
0010100011101100
1010111001000100
1010011111001010
1010100011100000
0010011111001100
0010101111011110
0001111111110011
0010000101001111
0010110100111110
1010110100001011
1010101011010011
0010100110110011
0010100110001100
1010100100010001
1010101000111101
1010110101011110
1010101000101110
0010010011011000
0010100111010110
1010010010101111
0010100100101111
1010101111011110
0010111000001110
1010110000111101
1001111101001101
1010101001000100
1001100110010000
0010101001000000
1001111000010000
1010011000100010
1010110011111100
1010010111101001
0010100110101101
0010101100010101
1010110010101010
1010110100010110
0010100011100101
0010100000111010
1001110010001011
0010001100010010
1010000111100011
1010100110010100
1010100011111101
1010110000011111
0010011001001010
0010010010001011
1010010011000110
1010011100011010
1010011111001110
1010110010001100
1010011001010001
1010101101011100
0010011100100010
1010100101001111
1010101000111010
0010100000001101
1001101100011111
0010110100000101
