1010101100100100
1010000101001000
0010110011010010
0010110001101101
1010100000001000
0010100111010101
1010100110100110
1010011101001000
0010101111011100
1010101001110010
0010101110011100
0001100111111001
1001111101010011
0010110100001111
1001101000110110
0010011010000100
1010110010000000
0010000011111100
1010101111011011
1000110001010010
1010100001000000
1010110001101011
0010010101101101
1010100110010000
1010011101001011
0010101000000110
0010100110011010
0010110101001010
0010101001101001
1010101000110110
0010011111101011
1010110100111001
0010101101010010
0001010101000111
0010100111010100
0010100100011111
0010010001111111
0010110000011000
1010011100101011
1010101001000111
0001111011000001
1010101110101110
1001111010001100
1010011010001110
1010101000001011
0010000110010010
1010010101110101
0010011010110000
0010110000010111
1010011010101010
1001100100111111
1010011000000000
0010101011100010
0001110110001100
1010011101111000
0010110011001111
1010110010101001
0010001100001100
0001110010001011
1010100100111011
0010011011111011
1010101001001011
1010100100001011
0010011000000101
1010101101010111
1010001011111110
0010110001001001
1010100100010101
0010110010000011
1010011111010110
1001111111000000
1010110000000010
1010011100011010
1001111000101000
0010101001011001
0001111010110100
0010110010000010
1010000101011000
0010011111111110
1010110000100111
1010011010010100
0010100000110111
0010011100011101
1010000010111111
0010101010100000
0010001010100111
1010110010010000
1010101101111110
1010101001001001
0010000101111000
1001010101110110
0010110000110110
0001100111010101
0010100010110010
1001110010011001
0010101000000101
1010101001111100
0010100100110011
1010000100001101
0010101100101111
1010100010100111
1010100110110100
1010010010111001
1010000000011101
1010101011000111
0010101100101101
0010100101110111
1010100011100110
1010101101100011
1010100101001001
0010110001101000
0010011110100000
0010110000001110
1010001101011001
1001111010110010
1010100000101110
0010011001011111
0010101001101101
1010001000101000
1010001101011010
0010101010110100
1010100011111101
1010011001010011
0010101001110011
1010100110100010
0010001011101110
1010100000110110
1010001100010000
0010011111101011
1010110011000001
0010101111101111
1010010011111011
1010011101100001
1010011101100010
0010000110101000
0010110000110110
0010100001000001
1010101101010001
1010100101011000
1010010011011110
0010100111111001
1010110010101001
1010001101001101
1010010000100000
0010011011010011
0001101101000011
1010100110111001
0010100100111010
1010100101011100
0010101111110111
1010100011011111
1010100001010000
1010110010001001
0010000101101010
1010100101101010
1010110001010000
0010101111110011
1010110000001110
1010101011111000
1010011010000110
1001011000000101
0010101011101001
1010110100000011
0010100110000110
0001111001000100
0010100010000110
1010010001010101
1010010100111001
0010010011110110
1010100111100100
1010110000111011
1010010100110010
0010101001100000
1010110001100011
0010101111011010
0010100010101110
1010101111101000
0010110001001110
0001111110001000
0010010001110001
0010011101110101
0010110001000011
0001110110100011
1010101011011001
0010010010001110
0010101001001111
1010010001000000
0001101111001011
1010100101111101
0010010001111000
0010101000110011
1010101011001100
