0010110000001000
0001110000100010
0001101110001100
0010110011011101
0010000001100100
1010100010110011
1010011000100001
0010100111110111
0001001101010000
1010110001001110
0010101011101001
0010101010001110
1010010000000111
1010101110001010
1010010100110110
0010101111001100
0010011101001000
0010100010000010
1010100100111100
1010101000000111
0010010011100111
1010000001111101
1010100111100000
0010110001110100
1010100111100111
1010101011001011
1010001011100001
0010100110100000
0010100001101110
0010110010111101
0010101001111100
0010101010010101
0010011000011010
1010100101001110
1010101100001000
1010101110110111
0010101010100100
0001100000001000
0010100100001001
0010101101110100
1010100010101100
1010110000001101
0010110010001111
1001010101110001
1001010100001101
0010100011000100
1010110011110110
1010011100110010
1010011001101011
0010011001101000
0010011011110000
1010100010110101
0010100101101110
0010110100010010
1010110010101001
1010011011010010
1010011001110101
0010100110010010
1010011101111011
1010101001011101
0010100110000111
0010001011110011
1010101011000001
1010011101100011
0001011001100111
0010011111001011
0010100001110101
0010011000010100
1010110010010100
0010100111001111
1010100000000001
0001101001111100
0010010111100010
1010011111011100
0010101001101010
1010110000110101
0010100011011111
0010011100010101
1010100100110101
0010010110010011
0001111100010100
0001111000010001
1010101111000100
1010100110010110
1010110000100110
1010010100011100
1010110011111000
1010011000010000
0010101011101011
1010100001011000
0010000110100111
0010100111000100
1010100110110001
0010010011100101
1010010100010000
1010000111010010
1010100111011011
0010101100001000
1001100110001100
1010100010111010
0001110010110110
0010110000111101
0010110101001011
0001011111100011
0010101011101101
0010011110000111
0010010011011010
1010011001000101
0010100010100101
0010100000000001
1010100011100100
0010101100110000
0010011110101010
1010101000100110
0010101101001011
0010011111110000
1010010000110101
0001110011000110
0010011100001000
0010011110010000
0010001000001000
1001111111101000
1010101001101110
0010100110001100
0010100110000011
1010100111001010
1010100111100111
1010010101000011
0001110101000110
0010100101111110
0001111100011011
0010100111010101
0010100101000010
1010110010001010
1010100110000010
0010100100011100
0010100101001101
0010010111110000
1010101101110010
0010000000001110
1010001110001100
1010110001011001
1010100101111100
0010101111001011
0010110000101010
1010011000101110
0010110001110101
1010110100100011
0010100001111101
0010101011111110
0010101111001110
1001110010011111
0010011001110000
0010010110010100
0001110010000101
1010101101101010
1010001000101000
0001111000110110
0010101001111001
0010100111000100
1010110010001010
0010110100010000
0010100010000010
0010110110000010
0010010101010000
1010101010100111
0010100110101111
0010001100000010
0010110000001011
0010100011001001
0010010100011000
0010101011101100
1010110000110010
0001011000111001
1010110100100011
1010101011110010
0010100110001010
0001111111011001
1010100010010000
1010001011011001
1010101000000101
1010100101111010
0010010000110111
1010101101100100
0001101100110101
1010101110110011
0010010111101101
0010011001010100
1001011010001010
1010100011111011
0010100110111010
0010011011010000
