0010100001001000
0010100011101011
1010110010010110
0010010010100110
0010010010010110
0010010001000011
0010011100100100
1010110110010010
1010000111100011
1010100001010110
0001011001011111
1010000101100101
1010100101011100
1010101010000110
1010110011110010
1010110110101010
0010010011010111
1010011010001000
1010110001100010
0010100100010100
0010011101100001
1010110111011100
1010101010011110
1010110011101100
1001110010000001
0010011110100010
1010110100110100
1010100111011101
0010100000101010
1010110010001101
1010011111110100
1010110111110101
1010101100101001
0010100111011001
0010011100100110
0010100000011000
1010110110001111
1010111000110001
1010111001111011
1010001101100001
0010000110010011
0010100101000100
1010101000111110
1010000100010001
1010001010101001
0010101001101011
0001101100101111
1010100110110111
1010100000010101
0010010101111001
1010100000100000
0010010101100001
1010110010111110
1010110001100000
1010100111111000
1010110111001101
1010110111000011
0010001101100011
1010110110100111
1010100010000110
1010110010101000
0010010001001011
1010110001011111
1010110001111011
1010010110011011
0010011010011101
1010010010011100
1010101010001011
1010100001001011
1010110001010111
1010010100011010
0001110110110111
0010010100110011
1010010000111111
1010110011001100
1010110101110111
1010110111000100
1010101001100111
1010010000010000
1010111000101101
1001000101111000
0010100000111110
1010000000110100
1010110001100101
0001110010010010
0010000010000000
0010010101101110
1010110101001101
1010110001111110
1010010100001000
0010000100010000
1010100001110010
1010111000100000
1010100000100101
1001110010001011
1010011110001001
0010100000011100
1010100000001110
0010000100001100
1010001000010001
1010011111000000
1010110110101010
1010110010101101
1010101000101010
1001011010111111
1010110101110000
0001000001011000
0010001100110001
1010011000011100
1010110101011110
1010111000000010
1010010111110100
1010100110101010
1010011111100111
1010011111100011
1010011011001011
1010110110000010
1010110010000110
1010101101101101
0010000100011101
1010110100010011
0001111111011101
0010100010100010
1001101100011111
1010110110101100
1010111001010000
0010100100011010
1010110000010001
0001101001100011
1010101111001011
1010111100100101
1010111001011101
1010010111011001
1010101000001011
0010010010010101
1010110100110101
1010111000110010
1010011110111011
1010110000100010
1010110111011111
1010101001001101
1010010111010111
0010010111111000
1010110100000100
1010110100000111
1010110110101010
1010011010010100
1010110000010110
1010101000101110
0010010010010101
1010011010101001
1001101010010001
1010111000000110
0010000001011010
1010010111100011
1010010111111111
0001000011011100
1010110011111110
1010110000111110
0001101010010010
0010011010010001
1010110100100010
1010110110100100
1010000001111011
0010100100110111
1010101001110100
0010101000001000
1010110101101101
1010101011101011
1010110110100110
1010111000011111
1010110110101100
0001111110001111
0010011100000100
0010100010101110
1010100011010000
1010110011000000
0010011011110011
0010010000100000
0010000011101111
1010110001101000
1010001001010110
0001111101100010
1010100011000111
0010100001111001
0010011111011011
0001001101111110
1010000011001000
1001101011110010
0010011010100111
1010110100111001
1010010100101100
1010110100110100
1010101100110100
0010010110110100
1010110101111011
0010000010110111
1010011011111101
1010101110011010
0010100000110100
1010101011110000
1010100000010000
1010111010100010
0010010011110011
0010010110110100
0010001001010000
0001011010110111
1001110110011000
1010110011111100
1010101100001001
0010010010001011
0010100110111010
1010110001011010
0010001011110011
1010110101000101
0010001100011101
1010010101000101
1010101011101001
0010000100001010
1010110110010111
1010111001100000
1010100011011001
1001110101101000
0010010011101100
0010001101000011
0010000110101100
1010101011000000
0010010101110011
1010011001000001
1010110110111110
1010110011100001
1001100101000100
1010110000110011
0010010011011100
1010101001001110
0010011100001110
0001100101000010
1010110000010011
1010011000010001
1010111001010100
1000100000110111
1010111000000001
0010001111101101
1001111101010111
0010100001000011
1010110111000110
1010110100101101
1010110010110001
1010100000000011
1010101001001100
0010010110111000
1010010001010110
0010001100000111
1010110010001001
1010111001100110
0010011101001000
0010010000101111
1010100100101100
1001100111000101
1010110011110100
1010110000101110
1010110101100101
1001110100011110
1010110111100011
0001110010101100
1010111000010101
1001110011110110
0010100100111110
0010100100110100
0010000011010110
1010110000000111
0010011001110100
1001111010011100
1010100101101010
1010100111011111
1010110011011001
1010110101010010
1010100111010101
1010101101000001
1010110010110100
1010101111011001
1010000110001001
1010010010001111
0001010100001101
0001110101010001
1010011101001111
1010101001000110
1010100100001001
0010101001000101
1010011110111111
1010010110111000
1010111010000110
1010100011010101
1010111000000001
1010110001011000
1010111011001100
1010110010001101
1010101101011111
1010111000011001
1010000101111101
1010111001111111
1010010001110101
1010001100110011
0001111010010100
1010100101111011
1010111000111000
1010101011110010
0010010110011011
1010001000000010
1010101100000100
1010110001110001
0001110101110111
1010100011101110
1010101110101010
0010010010110100
1010110110110010
0010011011100000
1010000010110111
1010010111100001
1010110000110011
1001110001001010
1010100010111001
1010101010000001
1010101101100111
1010111001110001
1010100010010110
1010101010010011
1010110110111101
1010101011100001
1010111010101000
1010000110011001
0010000010011101
1010111001101000
0010011000001110
0001101111101010
1010111000101000
1010000110110001
0010011010111011
0010001110000010
1010110001110011
1001111000111000
0001111010001100
1010011010000101
1010011100100010
1010010010100010
1010100110000101
1010010000011000
0010001110011100
1010011110001111
1010011001010100
1010000101111011
1010100101101101
1010110000111101
1010010111010110
1010110100111110
1010001000110100
1010101010100110
0010010111000000
1010110100001011
1010110101011000
1010100000111100
0010001001000011
1010001111111101
1010100100001001
1010100111101011
1001110001101111
0010011000001110
1010100001010011
1010010011110100
0010001110101001
1010100000101110
0010100000011110
0010001111111001
1010101110111101
0001100100010101
1010100000001101
1010100010111100
1010110000101100
0010000001100101
1010011111110111
1010100000100110
1010001111001001
1010101110100011
1010011100001101
1010110100000111
1010010111110111
0010010101100010
1010100011111110
1010001110101011
1010111010111100
1010011111101011
1010001101010111
1010100010001101
1010100010101111
1010100101001000
0010010110011111
0001011011000110
1010100000011100
1010100100000001
1010101110100101
1010111010000101
1001101110000101
1001010001001000
1010100001111011
1010110100110110
1010101000111110
1010110110010100
1010110100100000
1001100000010100
0010011000111100
1010110101111001
1010100100010001
1010110110011011
0010100101010111
1010100001011010
0001110000100000
1010110010110110
1010111000100001
1010110011101010
1010100100000001
0001011111001110
1010111001001000
1010101100110010
1010100111101010
0010100100000100
1010111000110001
0010000011010111
1010110001110111
1010110001111110
1010110000100001
1010110001101111
1010110000110101
1010101111110010
1001111111100011
1010111100000011
1010110000001110
0001111011000100
1010011000100001
0010100101101001
1010001000110100
1010101111100111
0010011011001011
1010101000110011
1010101111001110
0010010111000100
1010110001100000
0010011011111000
0001111011101010
1010011101101111
1010011010101001
1010011000010001
1010100011111100
1010111000001100
1010000101001100
1010100000000010
1010110011111110
0000111000010011
1010110000110010
0010010010010001
1010110011001111
0001111000010010
1001011111111000
1010100111110011
1010110010001010
0010010101000110
0010010111101011
1010011011101011
1010100000111111
1010101110101001
1010110010100000
1010101010010101
1010100000110100
1010100111001000
0010011000011111
1010101101000100
1010110001100001
1010000111000010
1010010110011001
1010011111001000
1010000110110111
1010110010000101
1010100001111010
0001100111001000
0001110001010000
0010000000100010
0010011011100101
1010111101111110
1010000111111110
1010111000111011
1010100110000101
1010010011010100
1010010110011000
0010011101011000
0010000111110001
1000111001111011
1000111001111010
1010101011000011
0010000000001111
0010100000011001
1010110100011101
0010011001111100
1010110001100100
1010010100101101
0010001011011110
0010011001101100
1010011010000011
0010010111110101
1010101000001001
1010101001100100
1010110100101000
1010110011011101
1001111010111001
1010101110101010
0010010100000011
1010110010000111
0001111111111101
1010100000001101
0010011101010010
0010101010001010
0010001100001011
1010000111110110
0010101010001100
0010011110100001
1010111000010111
1010111001110111
1001110001101101
0010011001001101
0001111110110110
1010011001011010
1010100100110101
1010110111111111
0010100011100111
1010110101011010
1010101000100110
0010010011011111
0010011111100100
1000111000011011
1010110010111110
0010011001110101
0010011101100100
0010001110001111
0010010110111001
0001100100010111
1010110101110001
1010110010011111
1001110011110001
1010101110001100
1010101101100011
1010110111111011
1010101000001011
1010111010000100
1010100101111000
0001100000111010
1010010111010111
1010110100010001
1001111011101100
1010100000011010
1010011011101101
1010101111011001
1010011001000101
0010010101010001
1010110001111111
0010100010100111
1010101110101110
1010100000011010
0001001000110110
1010110110001110
1010110010000001
1010110000110000
1010100100011101
1010101100111110
1010110001001110
1010110110000001
1010100101000001
1010100001000110
1010101101011111
1010100011110000
0001100000000110
1010101110010101
0010001100100001
0010010101000010
0010010100101000
1010101011011100
1010110010111011
0010011100110011
1010011111111000
1001101000110100
1010111001110110
0010011111001111
0010100100010111
1010011011000101
1010010011101010
0010100001110110
1010100100001001
1010011101110011
1010110110100011
1010110100110000
1010110111100010
1010011111100011
1010111001100010
1010000011001101
1010100001011000
1010010011000011
1010110000000010
0010010100001001
0010100010000111
1010001110000101
1010111001000000
1010101110110001
1010101111111011
1001110010000010
1010110101101000
1001111111100111
1010110011010101
1010110101011110
1010100010110101
1010110010100011
0010000110011010
0010010011100001
1010110010010110
1010110001111001
1010010110000111
1010110000110101
1001111101011101
0001000111101010
1010110101111011
1010100010101010
1010010011110001
1010101000101011
0010001110111100
1010011100101000
1010101100100110
0010000111111100
1010100000101110
0010100011000110
1010011111011011
1010111001001110
1010101010001010
0010010011001011
0010010010011100
1010100010000110
1010101010100011
1010101101010100
1000000010110100
1010110100111010
1010010001100100
0001111010000101
1010001110111000
1010001010001000
1010100010100001
1010100100011001
0010000001111001
1001111100111101
1010100101001001
0010010010011100
1010110111111010
1000111110001000
1010110001100001
1010110001111100
0010010100000001
1010100000010010
1010000111111001
0010000111010110
0010010101111001
0010100010001101
1010100000010101
1010101001100101
1010101011010101
0010011010000001
1000110010101110
1010110100000100
0001010000011111
1010101001001010
1001101101100111
1010110000000101
1010000110111100
0001101111010010
1010110100001000
1010110111011111
1010110011110010
0010100001001001
1010110001100110
1010100010010111
1010100110010001
0010011100011011
0010010011001001
1010100101100100
1010101011100100
1010101011110111
1010001100110011
1010011001110110
1010011100100000
0010000111101000
0010010101010011
1010010110110001
0010010110000011
0010010101100000
0010010011001100
1010110110111101
0001110100011110
1010100101101110
1010101010100101
1001110101011011
1010101100010101
1001011010101000
0010100001101110
1001100001010010
1010110000110100
1010110111001001
1010011110111100
1010101100001111
1010011111110101
1001110001101001
0010001010111001
1010010101101111
1010010111100110
1010110101001111
1010100111001010
1010010001110001
1010110010011000
1010010011000010
1001110110010111
1010000101001011
1010100111000111
0010010001100011
1010100001011000
0010010001111010
1010110010010111
1010101110000001
1001111011100001
0010100010011010
1010100010101011
1010101010011101
1010100110110101
0010010000100100
0010001001100110
1010011000110011
1010111000111110
1010101101100111
0010001111101101
1010000100111101
0010000110101101
1010011001111110
0010000110101111
1010010101010111
0010011001110110
1010100100100000
0010010100010000
1001111010111000
0001111111011100
1010110101110110
0010011111100011
1010000011111000
1010100111001110
1010011000011110
1010101001000000
1010010010001111
1010100000010100
1010110011001100
0010011001001010
1010011100001100
1010100001100011
1010111001101001
1010110010010000
0010011111101011
1010100001010111
1010011101111011
0010000111001111
