0010100011011101
1010000110001010
1010001101001011
1010110000001001
1010100101100011
1010101001101100
1010101010101011
0010100010000011
0001100110010000
0010001111011010
0001100001000101
0010100101010110
1001110011100000
1010010001100101
0010011011000000
1010101011011001
0010101100011111
0010011010110010
1010101100000110
0001111110110011
1010110000000011
0001110011000000
1010100000000001
0010000001011111
1010110001111011
0010110001000011
0010100010100001
1010100001011001
1010010100100001
1010010001010010
0010010010000100
0010001001011001
1010000001011110
1010011000100000
1010100111011000
1010110000101101
1010100101001101
1010100110011100
0010011000000110
1010100001100000
0010011011001000
0001010100100010
1010101001111010
0010101100110100
1010101011001010
0010000000010001
1010001110100110
0001101110100010
0010010011111101
1010101100000100
1001110011110010
1010011100011010
0000111101100100
1010010111000101
1010101001110111
0010010110100000
0010010110111000
1010000010000100
1001111100000000
0010100110110101
1001110001110110
0010101010110010
1010101011111110
1001011001101110
0010101110101010
0010101000111100
0010110000000111
1010100110101101
1010101011111000
0010110010100011
1010100111110111
1010100111100010
0010101011101110
0010100010000011
0010100111100100
0010101100011001
0010100100010111
0010100101101010
0001111010010101
0010100110011110
1010101101100011
0010101100101111
1010000001100100
0010101011000010
0001110111001110
0001011110011110
1010000000000101
0001110100100010
0010011110010001
1010010110010101
1010101010010000
1010101100010110
1010100011010010
1001011011111001
0010101001111101
0010001100001100
0010010111111010
0001101100101010
0010101010011011
0010100000000110
1010100101011010
1010100000111110
1010101110010011
0010110010100101
1010101110111001
1010101100011111
1010110000010010
1010110000001101
0010100111110101
0010100000100010
1010101001000100
0010010110110010
1010001110101100
1010100001111101
1010100110010110
1010101101001001
0010101101100100
0010010100011100
0010100010000101
0010010100100010
0010110010010111
0010101001000001
0010101101100010
1010011010110110
0010011001100001
1010011110010000
1010010011101000
0010000101101001
0010010000011111
1010101001000011
1010000001110011
0010011110000010
0010110010010110
0010110001010001
0010110001001010
1010101001111111
0010101101010111
0010110000101110
1010101111100001
0010100010101101
0010000110101101
1010101001101011
0010100010110001
0010101000001001
1010011000110011
1001110001001100
0010100111100000
1010101000110010
1010100001110010
0010100100000000
1010100010101000
1010001101110101
1010110000100010
1010010101000011
0010011011001010
1010101000110111
0001111011101000
1010110000000011
1010011110100011
1010011001001010
0010100111110111
1010011011010101
1010011001101010
1010100000111001
0010110011010000
0010110011111010
0010101011001011
1010101111011001
1010101001100011
1010100001000101
1010101010101011
1010010110110111
0010101010001101
1010011010100101
1001011111110101
1010100000110101
1001110000000010
1010011000101100
0010101010100011
1010010101000000
1010011111100110
0010100101100001
0010101000001000
0010100010000100
1010010110010000
0010010011000000
0010110000100011
0010100110111110
1010101010011101
0010000001010010
0010011000111110
1010101101100100
