11110100
11110010
10101100
11000011
00001011
00111100
10110010
10010011
01101001
00100101
01001101
00010010
00010101
00100010
00100101
11001101
11110011
00110000
00101100
00000000
11010000
00000111
10100101
00000111
11110101
10011010
11011110
11011010
00011100
11011110
00101110
00001110
11111111
11100111
00010110
00000100
11000000
00100011
11011111
11001011
01000100
00011011
10111111
11111101
00010001
11101000
00100100
00011110
01010011
00011001
00101010
01001010
11001001
11010100
11100001
10110101
10000101
11111101
11110101
10011000
00010011
10101010
11001100
10111110
11111001
11011111
00011011
11000011
11111000
00001101
00001010
00001000
00100111
00011000
11111100
11101011
11111001
11011011
10110101
11011010
10011000
10010110
11101110
11100101
11111011
10110101
00110100
01001101
10111110
11001000
00010111
01010000
00001010
00000000
00101111
11110110
11010011
11000101
11100111
11101111
10100111
01000111
11100100
00111010
11000110
10110011
11001011
11101101
00000001
00110100
10111110
00010000
00000010
00001000
00000110
00100101
00101101
10101000
11011010
00100101
00101010
11111000
00101101
01010101
01000011
00000000
00101100
00110101
10010011
00001001
11101011
11000101
00110110
11110111
11101110
10110101
11100011
11010010
10111101
00001110
00101011
01001110
10010010
11100110
01000110
01010111
11010001
00011101
11100110
00010010
11101110
01010011
11011010
11100101
00010101
01011001
11010001
10010010
10000001
00110010
11010011
11110100
10100011
10010010
00010000
00011100
11000000
01001101
00000101
10110110
10100101
01000001
00110110
11011000
00011001
11000110
00001100
01001010
11110110
11100110
11010111
11110011
11110011
01011010
11100000
11110010
00011010
11111100
00000010
01011110
01000110
10000111
