0010111000011101
1011110001001010
0011100010110100
1010100100010000
0010001100001011
0011100011000000
1011100011111011
0011101111011010
1011101001101110
1011001000001100
1010100100110111
1011001100110110
1011000100011101
0010101101000100
1010111011100011
1011101010000001
1010111100110111
1010100100100101
1010110010101110
0011011000111100
0011101110011001
0011100000111011
0011100010101110
1011101111010101
0011100111110011
0011101000001101
0011100010110110
1011101101010110
1011100111111100
0010111110011011
1011000001111110
1011110000010010
0011011010110011
1011101111010011
1011101000111000
0011100000101010
1001001101111011
0010101011000010
0011101010000011
1011100110111010
0011011111101100
0011100011100101
0011101011110111
0011001111101100
1011100011101101
1011100000100100
1011100001100001
0010111001001110
0011100011111101
1010111101011100
0011000111100011
1011100000100011
1011010100001100
1011101111110110
0011011010100101
0011011011111001
0011101010101111
1010110110001101
1011000111101001
0011100010010111
1011000100100100
1011001101101111
1011100111000000
0010111100010111
0011100011000011
1011101000000111
1011100010110011
0010111010100110
0011010110000111
1010111110001001
0011100011010100
1011010100001100
0011100111100110
1010101011111100
1011101111010011
1011100011010011
0011101011101011
0011101011011101
0011100111010111
0010111010100110
0011101100001001
0011101001000100
0011010111001111
1011101011000111
0011010000010001
0011100011010100
1010100000100111
1011001100110111
0011000100010000
0010011000110101
1011011101001010
0011000111001101
0001110000101111
1011101001101111
0011101000000010
1011001100011010
1011011100010001
0010110111110110
1011101011111000
0011101000010000
0010010001001111
1011010010100100
1011010101100110
1010110001110001
1011100001100111
1010100001000110
0011101011010111
1011110001001111
1011110000111100
1010101101101010
0010111111110101
1010010011001000
1011110000111000
0011001101110111
0011100001101011
0011011011001011
0011011011111001
0011010011011100
1010000110100010
0011000001010101
0011100011110111
1011010111111000
0011000010110101
1010010111110001
1011101111101010
1011100110101101
1011011001101111
1011100110010001
0011101011000100
0011100100010101
0011010110000001
0011101100111100
0011100010000000
1011101110101001
1011101010110000
1011100100110100
0011100011100001
0011010010110000
0011001001101011
0011010101100010
1011101000001101
1011101101110001
0011101111001001
1011101111100100
0011001010001101
0010100001110110
0011101011000101
1011011111101110
0011100110100111
0011100010011001
1011101010010111
0011100001001000
0011010111010010
0011100000111010
0011011100111100
0010101100101001
1011110000100010
0011101111111111
0011110000001001
0011000011010100
1011010011001110
1010111001110001
0011101101010111
1010010111101111
0011001101001101
1011010100111101
0011010100011110
0011011101011000
0011010100101001
0011100010110100
0011000101010011
0011011100100110
0011001011010100
1011100100000100
1011110000011000
0011011000110010
1011100100000101
0011000000111010
1010101100111111
0011001111100101
0011010101100000
1011001010010011
1001010110100110
1011100100001001
1011101101010000
0011001001011011
0011000000100000
0010111111101101
1011011111011000
1011010101111100
1011101000100011
0011110010001110
