1010100101001010
0001110010110001
0010010110101010
0010011000011001
1010011011011101
0010011011111100
0010001111001100
1010010000100100
0001000111110110
0010100001111001
1010011100100110
1010100101001010
0010011000000010
0010010000010001
1010110000110111
0010011111001011
0010011011010010
1001111100010010
1010010000011100
1010011110011100
0001110111000001
0010000010110110
0010011100011001
0010011010101010
1010010111011111
0010011101011110
1001100011101010
1010001100110001
1001101110001110
1010001100011000
0001111111100011
1010011100100000
1010010100111001
1010100000111000
1001100101001010
1010010110101010
1010011010100110
0010000111001010
1010101010100010
0010000101100101
0010010100100000
0001110101101001
0010100111010110
0010010000011111
0010010001101010
1010100010001111
1010101000111001
1010001100111010
0001101101011111
1010001100000000
0010011100001101
1010010010101101
0010010100110011
1001111011011101
1010011011100001
1010011000101011
1010100111100110
1010100101001001
0010001100110011
1010001100100111
1010011000110010
1010001010110011
1001111001110110
1010001101100110
0010011111000001
1001001000100110
0010011110101101
0010000011111011
1010010101111101
0001110001101000
1010010111111000
0010001100101000
0010000001001000
1010010101001000
0010010111010001
1001011100010000
1010010001001011
1010010010010101
1010010011000001
0010100001100100
0010000101110000
0010000010000000
1010011010000110
1010100000000110
1010010101011010
0010001000001000
1010101111101100
0001011000101010
0010101101001010
1010101101000010
0010011010100100
1001110110111110
1001111111101110
0010010100101011
1010010011001010
0010000110000100
1010110000111100
0010010100010100
0010011000101111
1010000010000101
1010100000000110
1010010000111100
0010100010110000
0010001100000110
1010000011100011
0000111111110101
1010010101111000
1010101100000111
1010010101001100
1010010111001101
1010010100000100
1001111101000111
1010001110101100
1010000010010100
1010000100100000
1001110000001010
0010000000100111
0010011000111000
1010000111011100
0001111010010100
1010100011101011
1010100011100010
0010001010011001
0010011001100010
1010010111110110
1001101011011011
1010011011001101
1010010111010010
1010100001010000
1010101001011110
1010101101110011
1001111001111001
1010010001011101
1010001011111111
0010011100111011
1010100000101010
1010010001000010
1010010111011000
0010001110110011
1001101111010101
1000010100011001
1010000101010100
0010000001000010
1010010110000110
0010001110010001
1010100110001010
0010010100010110
1001111110101010
0010000110010011
0010000010111110
1010001001010010
1001110001101111
1010011001110110
0010011001000101
1001100000111100
0010011111101110
0010010110000010
0010010100010100
1010100000000100
1001111111011001
0001110001110100
0010011010000101
0010100000100011
0001101000001011
1010010010110000
1010010010010100
0010010110011110
1010101010100000
0010010010010111
0010010000000010
1010011011110110
1010000011101000
0010010110110001
1010100001110011
1010100110000000
1010100011000001
1010100110000010
1001101100011001
1010000101010101
1010001110101111
1010010101010010
0001111011110111
0010011011011100
1010011010010100
1010000101110001
0010100011001010
0001110010101010
1010001010101001
0010001011000111
0001100000000100
0010000011000000
1010101110010010
