1010100001010101
1010011110100111
1011001110110001
1011010001010111
0011010100111111
1011001001000111
1010111101110000
1011001001010011
1010101001111000
1011011001000001
1011010100100111
0011001000111000
0011010101111100
0010001100000010
0011000100111100
1011011001101011
0011100010110011
1011010100100011
0011001100110110
1011100000010101
1010101001110100
1011001110101101
1010100001101100
0011011001111001
1010111001110010
1001010001110011
0011010001100111
1011010000001100
0011001000010001
0011010000011001
0011100001100010
1001101100001001
0011000000000001
1011001011001000
1010001110000101
1011000010011000
0011010111100111
1011000110110110
1010100101011000
1010000110101011
0011100000000011
1011001001100011
1011001001101101
0011000000110000
0010110101011101
1011011101110010
1010001010010110
1010111011101000
1011010000011001
0011100111110111
1011011110101110
0010110011101001
1010011001100111
0011010011101110
1001110110100101
0010111010111100
0010111010101110
0010001100000011
0010111111101000
1010001001000010
0011100000100100
1010111010011100
0011000110100000
1011010011100001
0011010110100111
1010101001001001
0011100001101011
1011001101000111
0011010000101011
0011011110111000
1010111000000010
0011000001110101
0010100001110000
0011001110100110
1011010010001011
0010111110000000
0011011100010111
0011011111011100
1011000010101001
0011010010110011
0011000010000000
1011011000101001
1011010001100110
1010110001010001
0010101011101100
0011100000101011
1011000011001101
1011001110100111
1011000010011110
0010110101110101
0010001010110000
1011000001100101
0010111001101110
0010110101111111
0010100001001000
1011000000110101
0011001001000001
1011000010011011
1010010001001111
0011001011011111
0011001001000010
0011000101111100
1010111010111100
1011010110011011
0011011111110000
0011000100001010
0011010000110011
1011011111101000
1010110010110000
1011010000001001
0010110101000000
1011000010111010
1011000001001010
0010111100001100
1011010001110100
1011011011001000
1001110011100010
0011010101100111
0011000100111000
1011001001010100
1011010101001000
1011010100010010
0010101011100110
1011000111111001
1011001001111011
0011001111011001
1011010111100000
0011000100101110
0011001000011011
1010110001101110
0010110100011110
0011010101010110
0010111101010010
1011000110110000
0011011000110111
1011000000111101
1010100100111111
1010100011111011
1011001010110100
1010100100110011
1010111101100110
1010101110000100
0010110011010111
0011010101111001
1010110110001101
1011010000011101
1011011010100000
1011000110100001
1011011100110011
1010101111101010
1011100000001100
1010101001011100
1010110011101001
0011001010011010
1011100001110001
1010110010101110
0010101000010110
0011010000010001
1011010010010110
1011000100100101
1011011101111000
1011000100101010
1011001011000011
1010111001101011
0011000011000000
0010110000011111
0011011000000000
0011001010101011
1011010001100111
1011000001000000
0011010000000111
1011000010010011
0010101100001011
1011100001111011
1010100111110010
1011011101010100
1011000101001000
1011010101110100
1011001000111010
1010110001100110
1010110100101100
0011011100110000
0011010101000100
1011001001111111
1011000011101011
1011010010100110
0011010100111110
0011000010101101
1011000000011101
1010111000111000
1010111010000101
0010111110110101
