1010110000111101
0010101000011010
0010000000011111
1010101011000000
0010100011000001
1010110010001011
0010101000100001
1010110000110100
1010101111101100
0010101010000010
0001011011000001
1010010001101111
0010110010001110
0010110000001101
1010000100100111
0010011010110010
1010101101100100
1001100000111000
1010100011000001
0010001010110100
1010101101100001
0010110010111010
0010101110001011
1010101110010011
0010101100001101
0001111011011111
0001100111011000
0001110010010100
0010101000101000
0010110001010010
0010100011010110
0010101100010101
1010100000110111
1010010000010110
1010110000000110
0010101011000010
1010100011001011
1010010000000110
1010110100011111
0010110011000000
0010010101101100
1010100110111010
0010011101000110
0010100110010111
0010011001101011
1010001001110100
1010100001100101
1010101001000111
1010101011000010
0010100001110000
0010011010101000
1010100111100001
0010101110111011
0010000010111101
1010000100100011
0010100001001000
1001111101000110
1010010011110011
0010111101000000
0010110000101010
1010100000011101
0010101100000000
1010100001101100
1001101110001001
1010010111100101
0010100010100101
1010011100101010
0010101011100110
1010110010001100
0010101001011000
1010100010010001
1010101110010100
1010110010101101
1010001001101111
1010101001110111
1010101110111101
0010010011000100
0010101111101011
0010101101011100
0010010000111000
1010110000111100
1010101000000100
0010010010111101
0001001101000101
1010110010001110
0010100011000110
1010000110100100
0010101011101111
1001110110100001
0010101001011001
0010100000100111
0010010001100010
0001101110000111
0010100100011110
1010100111100011
0001110101110010
0010101110010110
1010101000111000
1010101010101011
1000010011001111
1010100101101011
0010010001000101
0010101000011110
1010110101111001
1001101101010100
1010000011111111
1010110011000111
0001100000010101
1010101111111010
1010000101100101
0010010101111100
1010010001010101
1010110001001010
0010011111000010
1001100011111101
0010000100000110
0010100111010000
0010010001101100
1010100010001110
1010101010000101
0010100110000100
0010100010001001
0001111011011110
0010100100100111
1010110110110101
1010000100011101
0010011101010010
0001111001101110
0010110110010010
0010101101101001
0010010010010010
0001100001010101
0010101101100010
0010011001111010
1010011100110010
1010110011000010
1010110100110001
0010110001001010
1010100110101111
0010011110011100
1010000001010111
1010101111010110
0010100010000011
0010101111001011
1010110010100010
0010000101011101
1010110110000101
0010011000000001
0010100000010000
0010101010010010
1010100101011000
0010100001100101
1010100101110110
0001010011101000
1010011111100110
1010110000011111
1010011010000110
0010011010111000
1010010000101000
0010010010000000
1010100011100000
0010011011100101
0010110000110101
0010101110001000
0010101100100000
1001111110110111
0010101010100011
1010110010011011
0010101001000011
0010000110011110
0010100101100101
1010101101000101
1010100110010110
0010000100100000
0010100100000011
1010010101100010
0010001111011011
0010001001101010
1010001100100010
1010101101110100
1001110101000001
0010100111011001
1010010010111011
1010100100110100
0010101000011000
1010000011100000
0010101110011010
0010110001010110
0010100011011100
0010010100011011
0001110110100101
0010100011101100
