0010000100011000
1010101011111110
0010110010010110
0010111111100011
0010110100110111
1011000000111001
0010111000110001
1001100101100110
1010111000110001
1010110001010110
0011000010100101
1010110100101000
1010011100010110
1010110001011101
0011000011100000
1010100100110010
1010110111110010
0010000001100001
0010110000110111
0010101010101111
1010000011000011
0010111101011100
1001111100000001
0010111000011011
0010110001110101
0010100011011000
1010110111101111
1010001011000110
0010111010000000
1011001000000010
1001111110010110
1010000011001111
1010110010101101
0010101100100101
1010110110001101
1010101111001010
1010100100110111
0010010000110011
1010101001111110
0011000001111100
0011000010010011
1010000000110100
0011000000111010
1010010101001011
1011000011001101
1010100101100011
0010111011100111
0010111001101110
1010101101101001
0010110100001000
1010110101000000
1010011011010001
0010110100011001
1010001010000011
1010110101100010
1010110100111001
1010110010011100
1010110011011100
1011000011110011
1010010110010100
1010110101101000
1010100010110011
0010101000100011
1001110100000100
