0010110011010101
1010011001110101
1001010110101101
1010100010110101
1010110000001111
0010101011010111
1010101101010001
1010110010100001
0010100000101100
1010101010100000
1010000001110101
1010100011001101
1010010011101110
1010011000010001
1010011111111001
0010100000100000
0010100000101011
1010010111000110
1010000101110110
0001110001010110
1010010010000000
0010101011011010
0010110010001000
1010011101011101
1010011100001010
1010000101111110
1010011101001110
1010101000010110
1010010110101010
0010011101011111
0010101011011001
1010100001100011
1010101000010000
1010000011100111
1010100011110110
0010100010001010
1010010110110101
0010000111001010
1010100011110111
0010001011100011
0010100001001101
0010101101101100
0010100000011101
0010101010011100
0010101110001111
0010100001100011
1010101001101011
1010101100101001
1010101000011001
0010101001100011
0010100100010011
0010101110110111
1010010010101010
1010100100010001
1010110010011011
1010001010100000
1010011101011010
1010010010010100
1010011001101111
1010110001011110
0010101101000011
1010000000111110
1010101010011011
0010101011100001
0010101001001000
1010101110010010
1001111010000101
1010001001000000
0010100100011101
0010100000001011
1010110100110111
1010000010111100
1010011011011111
1010100101001110
1010000111000111
1010011110010011
1010010001001110
1010101000101110
0010101100111001
1001100011011100
1010100111000110
1010110000111110
1010100101011100
0010101101110001
1001111101001101
0001011110001101
1010000000101101
0010101001000111
0010100100111010
0010101101110110
0010101000110110
1010100100000110
1010100111011001
0001111011000100
0010100000110101
0010100100101101
1010110001100000
0010100110001000
0001010001100100
1010101110000000
0010100111100111
0010101010110101
0010101111010100
1010011101011100
0001101100101111
0010101110011000
1010110010101111
0001010110010011
1010011110000010
0010101000000000
1010010110111010
1010001110101101
1010010101001101
0010010001110000
0010010111111100
0010001110110100
1010011110000010
0010100110011010
0010010011111100
1010100100010110
1010011011000100
1010100001011110
1010010101000011
0010101101000101
0010010101001110
1010000110101000
0010010011010110
0010100110111111
1001111100001111
0001100101001111
1001011011110011
0010101001001110
1010010000100000
0010010001001100
1010110010000000
1010010100000001
0001111010001001
1010011010111001
0010100110000000
0010100100111111
0010001010110011
0010001000110000
1010100011110100
0010110011011001
1010001000000011
1010010011001110
1010011000101100
0010101100100101
1010110000011011
1010100001111101
0010011110101100
1010100111000010
0010100101010001
0010110001001000
0010001111101010
0010100101101010
1010100010111011
1010110000101100
0010100110100001
0010011010010110
1010101010101101
0010101111011110
0010100111001011
0001101110001111
0010100111111010
0010101000000011
1010100001000101
0010110010111001
0010110000110110
1001100110000101
0010101111111111
1010110001001110
0010100100100000
0010101100001101
0010001011101110
1010100100011010
1010101010000001
0010101011110000
1010100101000110
0010011011000100
1010101000100110
0010100001101001
0010100010000000
1010110100111101
0001111001101000
1010101001011100
1010101110001000
1010000010011000
0010000110101111
0010011110100000
0010001111110011
0010101011101101
