0010001011111011
1010101011000100
0010100010110101
1010011010010111
0010001110000001
1010101001010001
0010100001110001
0010110000010001
0010010110010101
0010000001001110
1010101000101100
0001110011111111
0010110001110010
0010010000101110
0010010011001111
1001111001011000
1010101010100110
1010010001011111
1010011001111101
1010110001001101
1010100000110011
0010100101000001
1001101000101001
0010101000101000
1010100011010000
0010011000101111
0010100010010110
0010101100000000
0010101000110011
0010100000000001
0010110000000111
0010000001100101
1010011001100110
0001100100110101
0010011001001110
0010000101000110
0010011101011111
0010101111100110
1010011111100101
1010100010111100
1010101111010001
0010110001100000
0010101110111111
0010000011010010
0010101110000111
1010100110011111
0010100111010011
0010100100010011
0010100000101100
0010000100000101
0010010000011100
1010010010001101
0001101111110111
1010100001010110
1010001100111100
1010110010100000
0010010100011101
1010100011001000
1010110000110011
1010101111010101
0010110000111000
1010010100100100
1010110000011100
1010011111000000
0010110000011111
0010010010001000
0010011001011000
0010011000101011
1010101101101011
1010110001001111
1010101011000101
0010100111111010
1010110100011000
0010110011101010
0010101110001100
0010100110011101
0010101100011000
1010010000100001
1010101000100000
0010110011110111
0010100010111101
1000110110011010
0001100010100100
0010100101001000
0001100010111101
0010100100101001
1010110101100110
1010001011000100
0010110000011000
0010101010001111
1010011001101110
1010100000000011
1010101101000110
1010110001010111
1010101001101110
0010101000111111
1010010100000101
1010011010011101
1010101000011111
0001100101111110
1010001000111101
1010110100001011
0010010101010101
1010011001000001
0010011011001001
1010011100010001
0010010110100101
1010101000010100
1010000100111000
1010101100011100
0010100100101111
0010100111000010
1001010011110001
1010000010001001
1010100111001001
1010101110100011
1010110100101100
0010100010101011
0010100010000110
1010000011000011
0010110010001110
0010110001010110
0010101010000000
1010110011100010
0010101101100010
0010100011111111
0010101011101110
0010011111000000
1010011010101101
1010100000111101
0010001111010001
0010100010101011
0010101101000011
0010010011010000
1010110000011000
1010100010111100
1010110000001010
0010100101001001
1010001111100110
0010011100011101
0010100011110110
0010101000100101
1010000001111011
0010110000010000
1010110011000110
0010100010101100
0010101100011010
0010110100001011
0010100000101100
1010011000111100
0010110001001110
1010101011010010
0010011010001010
1010110010011110
0010101001101011
1010001110110000
0010101010000010
0010101101110000
1010100001001100
0010100101011111
1010110000101101
1010000001001110
1010100000001011
0010011110011001
0010101001011010
0010110011101000
1001010110100010
1010010011111011
1010101100101010
1010001110100110
0010100100111010
0010010111110010
1010001011101001
1010010011101101
0010100011010001
1010100000101001
0010101011110010
0010000101110101
1010110001011000
1010101101100010
1010110000100101
0010011011010001
0010100000101101
1010110001000011
0010101011111111
0010100000000100
0010010010101011
0010100110010110
0001111001001000
0010011101111010
0010110000001111
0010000101111000
