1010000110110001
0010100110100011
1001111100000101
0010100000110100
1010011101011101
1010000110001001
1010010001001101
1000000011111100
0001110100010001
0001110001010001
0010100000010101
1010010000000101
1001110101000110
1010000101010110
1001110101111011
0010100001010010
1001010010110010
0010011101001001
1010000010100110
1001101111110011
0010011011000100
0001000001101101
0010001001000000
0010010111001111
1010101100000110
1001101000101100
0001110011001110
1001000011010100
1010001000001000
1010001001101011
0010000001011001
1010100000101010
0010011100001000
0010000100010000
1010000101000011
1010011001010001
1001111000100110
0010011001011110
0010000000000101
0010010010010000
0010100001011101
0010000100100000
1001111111100010
1010100000011111
0010000101001110
1010001000000100
1010011111110111
1010011110000110
1010100111000000
0010001111000111
1010100010000000
1010000100110101
0001101010010001
1001100001100000
1010001010010011
0010010000101110
1010011100000000
0010011000100101
1010010011010000
1010011000100000
0001111001101000
0001101101111100
0010010011101000
0001000000010101
1010001111100100
1010010110001100
1010100000001010
0010000101110100
0010011111101000
0010101000011111
1001011001101000
1001110000000110
1001010010110000
1010010010001110
1010101001111100
0010011111110000
1010100110001001
1010100000111101
0010100000001001
1010010001100010
0010100110010101
0001001110001110
1010010001101101
1010011110111100
0010001101101000
0010100010110110
1010101110011110
1010100111110111
0010001111111101
1010001010001001
1010001001110011
1010100000001100
1010010110101110
0001100111011010
0010100000000100
1010000111001000
1001111010011000
1010001100001000
0010011000011000
1010100010100111
1010100001010110
1000100111101101
0010010011001100
0010100100011011
1010100010111001
1010010101001110
1010001001111000
1010100100100101
1010100011010110
0010000011101011
1010100000110011
1010010010010100
0010001110010000
1010001100010100
0010001011011110
0001110000001110
0010000011011001
1010001101011100
0010010101111010
1010100000010011
1010010001000000
0010010111100110
0010010001110010
1001110111110000
1010001000111101
0010000000000001
1010100100000110
1010100100111101
1010001000111101
1010010011010110
1010001100001101
0010000100101110
1010010011110010
1010000111111101
1010001000101001
1010011001110111
0010100010101110
0001111101100101
0010001101001110
0010010011000111
1010100011100001
1010100110111100
0010010101011101
0010100010100110
0010010000101101
1010000110111001
1010100001100000
1010100111111100
1010011010110001
0001110101011100
0010100001110001
1010010010110111
1010000111001110
0010010011100110
1010010010111001
1010000011111110
0010010110100110
0010011001011100
1010000100011010
1010001001110101
1010101110100000
0010010011010110
0010000010100101
1001101000011110
0010010010000111
0010100101000111
0010000100010001
1010110010011101
0001010100110111
1010010100010011
1010100101101100
0001111001110011
1010001010000001
1001010011110000
1010110111000000
1010101110011110
1010000100010011
1010010010101011
1010100010000010
0001111110011010
0010010000010010
1010010101000010
0001010010000010
1010100011010111
0010001110100101
0010001010110001
1010100001010110
1001101101111011
1010010101010010
0010001010011010
0010011110100111
0010001010100101
