0010100110000010
0010100101110000
0010101001110000
0010011010111111
0010011110010010
0010101101111010
0010101000100011
1010101100110010
1001111011000101
1010011001111000
1010000100000000
0010100011010001
0010011010001011
0010001101001001
0010000000001011
1010100000101000
0010001100101111
1010110001101010
1010110001101100
0010100001110011
0010110100001010
0001011101100001
1010110010110011
0010011101000110
0001110110110101
1010001110010110
1010100010000100
1001110101011011
0010001001100011
1010011111101011
1010000110010000
1010101101011011
1010101000000100
0010101011100100
0010100110101000
0010101110101100
0010101110110001
1010001010100101
0010110011110101
0010100101100100
1010001010110100
0010100001001101
1001110111101001
1010101001110000
0010000000111001
0010001000001011
0010000100001001
1010010011111101
1001010001011100
0010011110001011
1010011011010001
0010100101001110
1010000010101011
0010101011011000
0010010000011011
0010010111111011
1010001111101111
1010000100101000
1010100101001101
1010101111101110
0010101000110111
0010100000011001
1010010001001011
1001100001000001
0010101100100111
0010010010010111
0010100001101100
0010010111011101
0010101100110100
1001111100001001
0010000100100100
0010100101110011
1010101010010100
0010011100101010
0010100111101101
1010001011111100
0001100001111110
1010010011011001
0010010011100100
1010001101101011
0010000111010010
1010001001111110
1010010110011110
1010101010101000
0010010111110101
1010011000111100
0010000111101101
0010000100011100
0010100011010100
0010100000100001
0010010101011101
1010100110000101
1010000101110101
0010101000000101
0010011100100100
1010100111001000
1010110011100010
1010110000110110
1010011010010000
1010101100001001
1010101101011001
1010011100001010
0010101111010001
1010101100110001
0010100001101001
0010000110101010
0010100010010001
1010001101001110
0010101111100100
1010010110011111
1010100111001101
0010100010011101
1010011100001000
0010011000000001
0010100010110010
1010100111011100
1010101001010001
1010000111101100
0010100110000101
1010010010001011
1010010101010111
0010100110111100
0010010001100001
0010011010100001
0010010101110111
1010100111101111
0010100110001110
1010101111110001
1010011010011000
1010010000100101
1001101101111010
1001111011011101
0010101000000011
1010101000000100
1010101010101101
0000010011111100
0010011000001111
1010010011110100
1010100001000010
1010000011101010
0010010010101100
1001010011100000
1010011110000011
0010100011110101
0001100001010001
0010011011010001
0010011000100110
0010011110100110
0010100100011000
1010011000101111
1010010011110000
0010001011011100
1010011101111001
1010100011100100
0010010001010010
1010010100011000
0001101100011111
0010010110101010
0010100101000101
1010100001001011
1010101001010110
1001101101010000
1010101000111100
1010100111101010
1010100011100010
0010101101001001
0010100101110001
0001100111110010
0010001110001111
0010010111010110
0010101101110110
1010100101000011
0010110000010000
0010100111001101
1010000101111011
1010010011010111
0010000010010100
1010001000100100
0010100110101100
0010001101111111
0010100111010100
1010011100000000
0010010010100111
0001101111000010
1010100000110100
0010011001100010
0010001101110101
0010101010100001
1001110101110110
1010001100011011
0001111110101001
0010010001010011
