0010000001100000
0010000010110010
1010100100010011
1001111001101000
0010011100110001
1001101101100000
0010100000100100
1010111001010110
0010010011001010
1010010101100100
0010110001011010
1001111010000111
1010010101101001
0010100001011001
1010101101001000
0010010010100101
0010010010000001
1010101011100110
0010010010111100
0010101010000001
0010010100000010
0010001100000110
0010010010100000
0010101110011001
1001110001000001
0001110100001010
1010110000111011
0001110100001100
1001111111111111
0010110000011001
0010011100000101
1010000010100111
1010110010000101
1010000001111001
1010100100000100
1010100011001010
1010010010000111
0010100110100110
0010000000010111
1010100110011010
1010011011101101
0010001010011010
0010110001100000
1010001010000101
0010101101001001
0010100111010111
1010010010001001
1001010000010111
1010100101111111
1010000010011010
1001110011001110
1010101000111011
0010100101110100
0010100011001010
0010100011001101
1010000100101001
0001111001110001
0010101111101010
0010101011111100
0010100011101110
0010110001110000
0010000000110111
0010101101000000
1010010100001000
0010000101011001
1001010010110011
1001110101001101
1010110001101010
0010101110110111
1010110101110111
0010100100111100
1010110001000101
1010100100010001
1010101101010001
1010000010011110
0010010111011101
0001110100111101
1010010010011101
1010010110101100
1010100000001010
1010101001011010
0010101000110100
1010110001001110
1000101110110101
0010101000100001
0010100100001011
1010011000110001
0010011110110000
0010010010011110
1010001001001110
0010100011010110
0010100010100011
1010100011001101
1010010101010011
1010101101100110
1010100101001000
0010011100001001
0010010110110110
1010010110110110
1001011101010100
0001101001100110
1010101100011100
0010010001101000
1010110101100000
1010100011110101
0010101111100010
1010100111100110
0001100100100000
1010110011100100
0010100100111111
0010101010100101
0001111101000011
0010110001001111
1010101101110010
0010011100101010
0010111010011010
1010011011100011
0010101100011011
1010100101110011
0010001101001100
1010011000100101
0011000000101100
0010110110010100
1010100110100010
0010100011000001
0010111100110011
1010010010110111
1010110001100110
1010001101100011
1010110100001001
1010101011110011
1010001101111101
0010000001101101
1011000000111110
1010101011001100
0010110001101011
1010001001011101
0011000011010001
1010110111000101
1010110011110000
1001111011110101
1010100000000110
1010101111000011
1010101010110101
0010110010001011
0010110100000000
0010100110111010
0001001011000100
1010100000101001
0010101001010111
0010011011000010
0010110100110101
0010101111010010
1010100111100110
0010011110111001
0010011001101101
1010011100110110
0010011010100101
1010101111001000
1010101000010101
0010010001100011
1010000000011100
1010010101010010
1010011010100110
1010010001001010
0010110011100101
0010010100001100
0010010101100111
0010100011000100
1010111000100011
1010110000001010
0010100110111011
0010101111111001
0010011101010111
0010100111000010
0010100000001001
0010100001001100
1010110001100010
0010110000001110
1001101011111001
1010110010011001
0010100011011110
0001111110111000
1010110011011101
1001100000000101
0010001101010010
1010100000001110
1010011011001111
1010100110000111
0001111010111010
1010111000111011
1010010010001110
