1010010010100110
0010010001100010
0010100001101000
1010110111001101
1010111001100000
1010110101010001
0010011011010011
1010110100011000
1010110111101000
0010000100010011
1010010011111011
1010110011000001
1010011010000110
0001110111110100
1001110101000000
1010100101010010
1010110111000111
0010010111010000
1010111011110111
1010100011110110
1010111010100111
0001011000110100
1010111100110000
1010100100011011
1010111001111001
0010100010001100
1010110011100001
0010010000000101
0010001010100101
1010101010111011
1010001001100010
1010011100001010
1010110111000010
1010110000000110
1010110000100010
1010101011000001
1010100011101110
1010110000011010
0001100010110010
1010011000011010
1010101011000110
0010100101100011
1010110000101001
1010010011000010
1010100001101001
1010111100010111
1010101101110000
1001110111011100
0010001000111011
1001110110111100
0010011110011111
1010000110100110
1010110110100111
0010010110001010
1010100010111101
1010101011110000
1010111001111001
1001111111101001
1010101010000011
1010001010010010
1010111011000111
1010000000110110
1010001000100000
1010100110011010
1010100100110100
1010101100101111
1010100101010000
1010110011111101
1010100011011101
1001010010110001
1001110101100110
0010001111010001
1010011010100100
1010111001010011
1010110101000011
1010100000011101
1001111011010111
1010110100100110
0010010010111011
1010011101001110
1010111001101000
1010100110101110
1010111010010001
0010010111000011
0010100000001001
1010100100101111
1010001001111101
1010111010001011
1010001111001111
1010111010000110
0010010000010110
1001100011001001
1010111001100000
1010101011101001
1011000000010111
1010011000111001
0010010011110101
1001111101111111
0010010111011111
1010100011001111
0001110011101001
1010101110100110
0010000111100111
1010100001100000
0010100110110000
0001011100111111
0001110010101110
1010100000100101
1010110000011100
1010111001000110
1010011111011000
0010100111010000
1001101000100111
0010011011011101
1010111010000000
1010011110111011
0010011101010010
1010110100100000
1010001100011011
0010100011110010
1010111010010010
1010111110000100
1010011101100101
0010010001100101
1010100000010011
1010100100011010
0010011010000001
1010110110110101
0010010111111100
0010100111000111
0001011101011110
1010011010000011
0001111000111100
1010110111000110
1010100010111001
0010100100011011
1010110111111010
0010011100110001
1010100110110011
1010110010101000
1010101011000011
1010110001001101
1010101010011000
1000111100000001
0001100001000100
0010100001000100
1010101100010010
0010010000011100
0001001111110111
0010010111000000
1010110100001010
1010110000101110
1010110100011100
1010001010000100
1010011000010010
1010011110111111
0010100000101101
1010010010001000
0010000101011110
1010100111011010
1000111011101001
1010010111111011
0010100101111001
1010111100010010
1010100010000110
1010101111100001
1010011001100100
1000111000100101
0010000000000010
0001111101001110
1010111000101111
1010101010000010
1010111000001000
1010111100110001
1010011000100100
1010011011010001
1010011010001111
0010100101010111
1010110100000011
0010010010000101
1010101111010101
0010011101111010
0010000011000010
1010100001111100
1010101001100100
1010101000011101
1010110000000001
1010100001110001
1010110111101110
1010101010100011
1010100001000001
1010010011100101
0010010001100110
0010011110010010
1010101001110100
0010100110111111
1010100100110110
1010100010110011
1010101001011001
1010101001100110
1010110011110000
0010100100010001
1010001001101110
1010101001111011
1010011010101010
0010010111001100
1010111100101000
1010000000010100
1010110101001010
1010100001000011
1010110010111100
0010010100101101
1010100001110011
1010100110001111
1001101100101101
1010100010101101
0010100010111001
1010011010101001
1010100100100100
1010100001010010
0010100001101010
1001111001100111
1010101010010100
0001111100010100
1010100000010100
0010100100101000
1010001110000100
0010000010101001
0010100011100101
1010101101111111
1010011011101011
1010010010011111
1010101010100001
1010010010000010
1010100000110010
1010101110010001
0010011010001000
1010100011000011
0001100001111101
1010101110010100
1010111011011000
1010111000111101
1010101110110001
0010101001100010
1010000100111110
0001110101010001
1010011000111101
1010100010101111
1010110010111111
0010001110111100
0000101100111111
1010100010010011
1001100110010000
0010100000001011
1010101100011001
1010110101111010
1010110000110010
1010110111010111
1010111000010010
1010101111111110
1010101011100011
1010100001010110
1010010101111010
1010101100001001
0010100011010011
0010100110111001
0010010000111011
0010100000101100
1010100000000010
1010100110011010
1010100010000110
1010101100010101
0010011110100010
1010010101100010
0010010011011110
1010110011001000
1010100110010010
1010100101111010
1010110100011101
0010100001001111
1010011110000111
1010110110000000
1010010010101011
1010111100011110
1001011001110011
1010101111011010
1010011100101100
0010100000011110
0001101111010000
1010100000110000
1010001011100110
0010011001110101
1010100010000000
1010110110000100
1010011011011011
0010010101011010
1010101000110011
1010110010101001
1010110100010111
1010110011101010
1010110011001000
1010100101110111
1010100101011001
1010010100000010
1010110000110001
0010011101100100
1010110111111100
1010111100011001
0001111110110010
1010111001101111
0001111011111111
1010101110011001
1010100100101100
1010111101010110
1010110010001010
1010101001111101
1010111000101110
1010010011001011
1010000001110110
1010110000011010
1010110100000000
1011000000110010
1010100111100100
1010001011000111
1010011100110101
1010110100011101
1010110001001110
1010000011000110
1010010000100000
1010110100100011
1010100111101011
1010010001011110
1010010001100101
0010000001110010
1010110011110111
1010001101011110
0010011111111000
1001001100001111
1010110000010000
0001111000011010
0010011000110100
1010011010000111
1010110010101010
1010100110001010
0010100101100011
1000101101110111
1010101100100001
0001000100001001
1010011100101110
1001110101101011
1010100010111000
0010010000010110
1010010010001001
1010101010110110
1010110010001110
1010101110000010
1010000110010110
0010100111010001
1010011001010100
1010001001010110
0001110100000000
0010001110101111
1010101111000101
1010111011111111
0010011011101110
1010100101110011
0010000110101011
1010100001100101
1010101000100101
1010100011100011
1010101011010100
1010011010101000
1010100110010101
1010000001101011
1010110001010011
0010101100110001
1010101000111110
0010010011111110
1010011000110010
0010100010100000
1010111011000010
1010100100110111
1010111001010100
1010001001010010
1010100001011110
1010100011000000
1010111101010001
0010011101001001
0010010000101101
1010101010011110
1010010100011110
1010100101101000
1001101001011010
0010011001101010
1010101001011000
1010110011101100
1010100100001000
1000111110100010
1010100010111000
1010101010110011
1010110011010101
1001101000101010
1010111010100010
0010010110110001
1001111111001111
1010010111101010
1010111001101001
1010000100000010
1010100111000011
1010101101000100
1010001000111101
1010000111110111
0010100100010110
1010111000000111
1010111010010100
1010111011000011
1010101111111011
0010000110111000
1010111000110100
1010001011010000
1010110110110111
0001111010111000
1010111000001100
1010101110101101
1010100011110100
1001010001111110
0010100001100011
0010011011110011
1010110101100110
1010101011010000
1010100010100100
1010100000101001
1010100000111110
0001111001111001
1010101001011111
1010100001001100
1010110001110001
0010011000100100
1010110011000110
0010001010001011
1010101111001111
0010011010101100
1010110011000000
1010010001101110
0010100110011101
1010011011100001
1010100001011010
1010100011111110
1010111101110011
0010100001011101
1010111101110011
1010110010001111
1001111010010010
1001110101101001
0010100011001101
1001101100011000
1010010110111010
1010110101000001
0010011011000110
1010011101110100
0010010111010001
0001100010011100
0010010010011010
1010101001111111
0010100000011111
1010110010001001
0010100000001101
1010101011101011
1001100100110000
1010101111110111
0001111011101011
0010011001000100
1010100011111001
1010101001010001
0010011111010011
1010100000001000
0010010110010010
0001101100011001
1010111001111101
1010100011111011
0010011110101101
1010101110110111
0001100000110110
0001000111000010
1010101011001011
0001010000000101
0010100001000000
1001100110111011
1010110011110111
1010110101100100
0010001101010111
0010010001111001
1010111011111110
1010110101011110
0001110001011011
0010010010000110
1010110100011001
1010111000100001
0010001101011010
1010101111001010
1010100110100000
1010100010011111
1010110100101100
1010100010001100
1001110000110001
1010110110000010
1010101110011010
0010100011000010
1010111100101100
1010100100000111
1010111010101010
1010100110010011
0010010101010000
1010110101100000
1010000111101101
1010110110011010
1010010001101111
1010101011001011
1010100010000001
1010100011100100
1010110100111111
0010010101000001
0010010001001110
0010011001111000
1010110000001101
0010010001111011
0001100101100111
0010011000001100
0010100000111111
1010011010101100
1010010101010110
1010110110011101
1010100111100010
1010110110011010
1010110101101101
0001110000011010
0010101010010000
1010101000100000
1010100100010011
1010100000111111
0001101110101000
1010100000011010
1010000100110100
1010001110000110
1010110101100000
1010101110111101
1010100000101001
1001001010110001
0010000001010001
1010010001100010
1010010111011010
0001110100000000
1010101110111010
1010111110100010
1010110010100111
0010000111110100
0010010101100000
0010011011110001
1010110111000001
0010010011111001
1010101111101001
0010100000100000
0001101110100011
1010110000100101
1010110011011100
1010101001001110
1010110001110100
1010110111000000
1010110110111011
1010111001111111
0010011001110011
1010110101111010
0001111010110101
0010011000110111
1010100100010000
1010011101010111
0001110101001010
1010000001001000
1010111000011111
1010010011111111
1010100100111110
0010100010101001
1010011001011100
1001101011001111
1010110011110001
1001111100111001
1010111001101100
1010100111111110
1010101011100000
1010110101110101
1010100011100110
1010011100010111
0010000101011111
1010100010101101
1010110001111101
1010000001100110
1010110011100000
1010100101101101
1010011001100000
1010101010011000
1010010010010010
0010001100000011
1010111000010110
1010111101001010
0010001011101110
1001111011011111
0010011011010010
0000111110010111
1001111001111110
1010111001011110
0010100010101000
1010110011001111
0001010001100100
0010000000000110
0001010111110101
1001110110101101
1010100000101101
1010011110001110
1010111001111100
1010010011011001
1001110001110010
0010011111000010
1010110010100010
1010011011000100
1010101110011110
1010101011111000
1010101110000010
1001111100110011
1010110001111100
1001110001001110
1010110010001011
1010010111001110
1001110011001000
1001110110101110
1010010010010111
1010100100100010
1010111011100101
1010101110001110
1010110001000011
1010110001001010
1010101111000011
1010100101011101
1010110111100101
1010100011011001
1010101111010011
1010100011110001
0010011100000001
0010010110111110
1010101111011000
1010110111111000
1010011010010101
1001110101110000
1001101101001101
1010110101010011
1010010100000000
1010110010010010
1001110001001111
0010011110110101
1010101101000010
1010100110101110
0010100101011111
1010110101010000
1001101000100101
0010001010111001
0010011111100100
1010011111000111
0010100001100111
1010101010010011
1010101110101100
0000111011101001
1010100110110000
1010110100011010
1001111110011000
1010010111100001
1010011110110100
1010011010110010
1010100111010000
1010111000110010
0010011101100011
1010110011110001
0010011011110010
0010100010000110
1010101000000111
1010110100011011
0010010101100001
0010100000000010
1010100100001110
1010101111011011
1010001110001110
1010010101110101
1010111000111000
1010011101111001
1010111001001000
1010101011010111
0010011000100101
1010110100101011
1010111001110111
0001101101000010
1010101010010100
1010011010010011
1010100000000011
1010111000100011
1010010010101111
0010001101010001
0010100100001100
1010011101100000
1010111001111011
1010110001000101
0010100100011111
0001111011101100
1010110010111011
0001111100010100
1010111001100100
1010010111110101
1001110110100001
1010101111111001
1001101111001010
1010110010000100
0001010000101000
1010110111100101
1010010011111110
1010011100100101
1010101100100011
1010000101001101
1010010010000000
1010110010010000
1001111101110011
1010110110110001
1010111000011110
1010110101101001
1010001000000000
1010100110000001
1010101101101111
1010110100101100
0010011111010110
1010101010000010
1010100000111100
0010010000011101
1010110001110010
1010110000111111
0010010110101001
1010111011101000
1010110110111001
1010001001001101
0010010100110011
0010100100101100
0010011101101111
1010111010110000
1010010111001010
1010011101100001
1010010011101110
1010011000000110
1010110100101011
1010111010100010
1010100011100101
1010110100100010
1010111010011110
0001001010011110
0010001101100101
0001100100100101
1010101000011100
0010100100001010
1010110010100110
1010110111100011
1001111101100110
1010100001010110
1010001110000000
1010001010111001
