1010110011010001
0001100010000000
0010010000000100
1010001001110101
1010111001011000
1010111000011101
1010110111101000
1001111111011000
1010011001111110
1010101110000011
1010110111110100
0010010011110001
1010110001001011
1010100111011010
0001100010000000
1010101101110100
0010100000110010
1001110111100001
1010110000110001
0010010011011110
1010100101001110
1010001000001100
1010101000111110
1010110000111001
0010010110101100
1010110100010010
1001111101001010
0010000111111011
1010110001110101
0010010001100011
0010011010001011
0010010110101011
1010110111000010
1010110110100110
0010010111000111
1010110101100001
1010010101010110
0001110111111101
0010010100111111
1010110010001100
1010110010011001
1010110011010101
1010000111100100
0010000000001110
1010011100000111
1010101101001100
1010100000011110
1010110000110100
1010110001100111
0001101000100111
1010110111101000
1010100011011111
1010011011110000
0010010110111100
1010110100101010
1010011000010001
1010110001100111
1010100000100011
1010011001001101
1010101100101110
1010101111100001
0010000111000111
1010010010100000
1010101000010101
1010100001000001
1010000101111001
1001000011110011
1010110000101011
1010100100000111
0010001010011101
1010100000000001
1010011111101010
1010100011001010
1010101101000011
1001100100100100
0010100010110110
1010110010100101
1010101100001111
1010111001111011
1010011001001111
0001011011001011
1010110010111010
1010110011100001
1010110100100000
1010100110101011
0010010100101111
1010111001011000
0001111000010001
1010110011111110
1010101100111000
0000110011010111
0001110111000011
1010100010111010
1010000010001011
0001010001001111
1010101100011111
1010010010000100
1010110001000001
1010101100101000
1010110000011110
1010010001101010
1010111010110111
0010010011001010
1010111000000110
1010110001101011
1010110010011111
0010010000011001
0010010101111111
1001111001001001
1010000011010111
0001111000011110
1010010011100010
0010010111111001
1010111000001001
1010110111010010
1010010101000101
1010101001111101
1010110000110110
0001110011010100
1010110101110111
1010111000100111
1010010100011111
1010101111000001
1010100010000101
0010100001001001
1010100110111010
1010110101111000
1010100010000101
1010011110100011
1010101100001011
1001101010110101
1010101111010011
0010001111000000
1010010000000101
1001111101111100
0000000111001001
1001110110010010
1010100000001101
1001110010001111
0010010001001011
0010010001001111
0010000010001001
0010010010100111
1010011110010100
1010110000010011
0001111100100100
0010100011011000
1010100011111010
1010101110101000
1010110011100011
0010010001010011
0010010010110011
1010101111110011
1010110010111110
1010110111001010
1010110010101001
1010110111010100
1010110011111010
1001110111110110
1010100011001100
1010110101011110
1010100000111000
1010110011110011
1010101100011011
1010110001100111
1010100011101001
0001111000001001
1010011101110011
1010110010110000
1010111001011011
1010101111110111
1010100011010001
0010001011101011
1010010111001111
1010110001001011
0010011110111010
1010100000100101
1010101111110000
1010111000010100
1010110100010011
1010110000110000
1010010110111010
1010011011111110
1010110010001010
1010111001000110
0010100100010001
1010111001111011
1010010011111101
1010100100000111
1010110000001100
1010110010110101
1010101010100001
1010110010110010
1010101011111110
0001100101011001
1010101101011100
0010010000001111
1010110100001010
1010100000101000
0001110111001011
1010110000000001
1001111010000010
1010100011010010
1010010111110000
1010011010100110
1010011000000010
1010110111110111
1010110010010101
0010100000000110
1010101010001110
0010100001110001
1010110110101010
0001011000000000
1010100111101011
1010110110001111
1010000101001011
1010110001101011
1010011111111010
1010111101001101
1010110001100100
0001110100011111
1010100011101001
1010110100110100
1010100011001110
1001111011010101
1010010110110001
1010010001001101
1010100111100111
1010100011000000
0010000010000100
1010000101101010
0001100110000000
0001111110111101
1010100110001100
1010110011000000
1010100111110110
1000011010010101
1010110001111001
0010010001001000
1010010011001010
1010010110101011
1010100010100100
1010101110001000
1010100101111010
0010000001101010
1010110010011100
1010110010001011
1010110100010100
0010000011101111
1010011010011001
1010100001000011
1010111000000111
1010110101011111
0010001100111100
1001110010100110
1010110101101101
1010101110100110
1001110100111111
1010010101110010
1010100000001101
1010110011101100
1010110101110010
1010011011011011
1001111000010110
1010110010100111
1010110010111100
1010110100011000
1010111010100001
1010100101001101
0001110111101110
1010100010011010
1010101110100001
0010011100111001
1010100011000000
1010010001010010
1010011000000001
1010010010001111
1010110110101011
1010101111111111
0010010101000011
1010010110001100
1010100101101110
1010101110101011
1010110010110111
0010100100101010
1010100111000111
1010110101101110
0001100010001101
1010110011111100
1010010011111001
1010101001011100
1010100011000100
1010010011101110
1010110011000011
1010101101010100
1010100000011100
1010101110011010
1010101100111100
1001011001010000
1010100011101101
1010110011000010
0010001000101101
1010110101110011
1010110100111010
1010000111010000
1010100001000010
0001101100000010
1010111010100001
1010011000011110
1010100010001000
1010101100111110
0010010011111001
0010010001110111
1010110111001010
1010110101011011
1010110011100011
1010110100010101
1010110110110010
1001111010011110
0010010101110010
0010010110101010
1010000111111011
1010101000101100
1010110011100011
0010010101100100
1010001010011110
1010101000001110
1010110111111111
1010001010100101
1010110001100110
1010110011000110
0010000011100011
1010110110111000
1010011011010001
1010010011010011
1010110101111111
1001101110010111
1010001101011101
1010010000010011
0010000000011101
0010000111000111
1010100101000111
0010010001101001
1010110001000101
1010110110101101
0010000100010110
1010101010101110
1010100101111011
0001101101101011
1010000101110001
1010100010001011
1010110001011111
1010110100011000
1010101101111001
1010110011101111
0010000100111010
1010100100011100
1010111000010101
1010100011001111
1010110101001001
0010011110101111
1010001100101100
1010110010011011
1010111000100110
1010101100100001
1010010011110000
0010001111000101
1010110111011101
1010110101110000
1001101111000011
0010010100010101
0010011100110111
1010110010000010
1010101110000111
1010110110011010
0010011101011011
1010100000010111
1010111000000001
1010110101011111
0010010010011111
1010100001110101
0010001001101110
1010100001000111
1010011011111001
1010010101010101
1001101010011011
1010100010101101
1010110001000001
1010110011111100
1010100011000011
1010100111101101
1010101100001111
1010010000101101
1010110000110100
1010110011010111
1010001101001110
1010110100000110
0010100000000011
1010100001110010
1010101000000011
0010000111100100
1010110101100101
1010110011000011
1010001010001001
1010110000000011
1010001111111111
1010010101000101
0010010010000100
0010001011110000
1010100011001111
0001111001001010
1010110100011000
0010001100001111
1010101010001101
1010010010110110
0010010000010000
0001110101001000
1010110111000101
0010000001110011
1010101110011110
0010000100000111
1010110101100101
1010011101011100
1010011010011101
1010111010101111
0010010010111010
1001011111011110
1010010101101000
1010011011111101
1010100110000101
1010110001000010
1010010010000110
1010100101100001
1010110111100100
1010100011001101
1010110001001111
1010101010111100
1010111001001011
0010010011011110
1001000011011111
1010111000010111
1010000111001011
1010100000100101
1010100110101000
1001011110111100
1010010011000100
1010010010101111
0001110010110011
0010010010000101
1001110100100000
1010101101000011
1010110001100000
1010100101110010
1010100011111101
0010010101110110
1010111000001110
1010110011100001
1010010100011011
1010101000011001
1010101000111110
1010101010100111
1010101000101110
1010100011011001
1010100100111111
1010101110011011
1010110000111110
1010101110001101
1001001101110111
1001111100101000
1010110001111111
1010101001101110
1010100000111110
1010110101010110
0001011101111100
1010101110100110
1010110100101100
1010101110010110
1010110110100100
0010010100010100
1010111011000111
1010101101011110
1010100000100100
1010110100101000
1010100100111111
0010011001010000
1010101011100011
1010011001101100
1010011101101100
1010101101001101
1010110111100011
0001001000100100
1010100101000101
0010001100110110
0010001111010111
0010001010110110
1001111001110011
0001110010011010
1010100111101110
1010110010101111
1010110011000000
0010000011100010
1010100010000010
0000100010100010
0010011001100010
1010101000001100
1010100001100001
0001110011011010
0010100001001101
0010011010011010
1010111000001010
1010110101001110
1010101100110001
1010101100010001
1001100001101000
1010110011111010
0010001100011100
1010110011100010
1010000111001101
1010011100100101
0010011100000101
1001001101100001
1010100001111110
0001100100100101
1010110000001101
1010100000110110
1010110100010110
1010110000001110
1010010100000000
1010100000011010
1010110000000101
1010100101110110
1010000100000110
1010110110010000
1010010001011001
1010111001101010
1010000010000111
1010000111011101
1010110011111110
0010010001100101
1010100110101101
1010001110100011
0010001111010110
1010110110011000
1010110011011101
1010111000101110
1010110101110100
1010001001000110
1010011101100110
1010110100101010
1010110110000001
1010100111111001
1010001111100100
1010110000110101
1001111111101111
0010011110010000
1010110001100101
1010000010000010
1010110000110101
0010100011101011
1010100101101000
1010110101100100
1010110001011101
1010101100011110
1010110011101110
1010111010001000
1010110001110011
1010100111100001
1010110000011000
1010010001111010
1010110001010010
1010100101101111
1010110110101111
1010110011010011
1001110001000001
0001010011100011
1010110111110000
0010011110000010
1010110110101111
1010111010011111
1000100000011010
1010011110111111
1010001011111110
1010001101011011
0010000110100010
1010011101001101
1010110001110000
0001100001110001
1010100111010101
1010100100110111
0010010010101110
0001101100110001
1010011011111000
1010110100100001
1010010000001011
1010110111001001
1010100101011000
0010000011111111
1010101111101111
1001111010010001
1010100101010000
1010111001100110
0010001110010101
1010101100010101
1010011101110110
1010000100000110
1010010110110010
1010111010011100
1010110011101100
1010100111110100
1010110111100101
0001100010011001
1010101011111000
1010110001010101
1001101010111101
1010110111010100
1001011100001101
1010101111100010
1010110011100010
1010101111010011
1010111001001110
1010101111110010
0001110010100101
0010001010101000
1010000111100011
1010110100100010
1010110100011011
1010110001100101
1010100010110100
1010100000111010
1010000111100111
1010100100100100
0010001011011000
0001011100111101
1010011011001000
0010001010010010
1010100000101100
0001010100000000
1010000111100000
1010101011101100
1010010111010011
1010100001111100
1010111000001011
1010110000100100
1010101000110100
1010101111100000
1001010001100001
0001110001010001
0010010000110110
1010011111010010
1010101000001111
1010110000101001
1010101100110111
0010100011100101
0001000000111000
1010111001100011
1010000110100010
1010111001000111
1010110101101110
1010010110011010
1010111000011101
1010000111010001
1010110100110001
1010101000001101
1010100001011011
1010000111011000
0010100001110101
1010110011111011
1010011111110011
1010100101001001
0010000111000101
0001101101001001
1010100001100000
1010100110111001
1010110011101111
1010110110010010
1001111100101010
1001010100001000
1010100100101001
1010100001111110
1010000011111011
1010101001011110
1010110001110101
0010000110011000
0010010100111101
1010110101001011
1010011000100111
0001101101101001
0001111110011110
1001110101111100
1010100111101000
1010011001000010
1010100111111000
0010001100000100
0000100010100001
1010110111000101
1010100010101001
0001111001101001
1010101101011000
1010101000101011
1010000100110101
1010100111111000
0010000010010111
1010100001010101
0010001000101011
1010110011010110
0001010001001111
0001101000011111
1010110001100011
1001110101110101
1010110000000010
0001100111111000
1010110011111001
0010000001010001
1010110110011111
1010100010011101
1010101111011111
1010100100001010
1010101101000100
0010010001000110
1010110010111001
1010110001011110
1010010001101000
1010110111100010
1010001110000100
1010101110000001
1010011001101001
1010110010011110
1010010110011000
0010010100011001
1010011011101001
0001001000000001
1010111001101000
1010100110001110
1010101010000111
1010001110111100
1010100110100101
0010010110111001
1010101011101110
0010010000100000
1010110100100110
1010110110010111
1010110100101111
1010100110010010
1010111000100010
1010110001001100
0010010101001001
1010100111010000
1010101100100100
1010110110101011
1010110110111010
1010110010011100
1010011001011001
0001101010100101
1010011100101101
1010110001101100
1010000100101101
0010010100000100
1010110100101001
1010101111101000
1010111000001101
1010010011111000
0010011000000000
1010111011101001
0010010101000010
1010110110101100
1010100101000001
0001101110011111
1010110011000101
