0010101111010101
1010101110011100
0010100001011101
0010111011001010
0010101110111011
0010111001110011
1010111000100010
0010110101100110
1010001001111100
1010111000110111
0010111100000110
0010101110101001
0010111100000000
1010111001111010
1010100001011011
1010111010100000
0011000010111011
1001100110100111
1001001010101100
1010100010111001
1010100111001100
0010111111111111
1010110011111111
0010111111001110
1010110010110000
1010100100010101
0010111111011100
1010111010111001
1010010010100111
1010110001100100
0001111100001111
0011000000010101
0010111011100001
1010100101011110
1010111100101001
1010110110001100
0010101010110100
0010101011000001
0010110100000011
0010111001001000
0010011110110110
0010111000011110
0010110011001110
0010110011111111
1010110110111011
1010110101000011
1010000000100110
0010111010011100
0010110001101001
0010111101101010
1010111110000100
1010010100101001
0010111000110110
1010011110110100
1010011111001101
1010101111110111
1010010011011101
1001101011101101
1010111011111000
0010111001000100
1010101000010110
1010100100011110
0010111101110001
0011000100100101
