1010100111000101
0010101010001111
1010001000010001
0010110011011101
0010010001000100
1010010100001100
1001110111110001
0010100011010010
0010001101111111
1010110000000100
0001111010100000
0010001010011000
1010010100100100
0010110000000100
0010010000101100
1001100101001000
1010011011001010
0010010110110110
1010100110010010
1010101010001100
1010100010010010
1010110000100100
0010100000111001
1010010100011100
1010011101001110
1001001111010010
0010110001010100
0010100111110111
0010110000011011
1010010111110101
1010010100111000
0010100011011011
0010100111010111
1010110100100001
0010100001001101
1010010011111111
0010011010011011
1010101010000000
0010010010110010
0010011000000100
1010100101010010
1010100111111110
0010011000101000
0001110101111000
0010101110001100
1010100101000010
0000111000101111
0010101111010100
1010110101000001
0010010111001101
0010101001010001
0010101001011110
0010100111001000
0010101100110011
0010101010111111
1000000011101100
1010011001010010
1010000011010101
0010100011001011
0010110001111100
0010101010101010
1010100010100101
0010101000001000
1010110011000101
0010101100110110
0010011010110001
1010110011001111
1010101001001010
1010101100011000
0001011010001110
1001011000011000
1010100000101001
1001111001110010
0010100110011000
0010000011000001
0010100001011000
1010100101010101
1001101110000001
0001010010111101
0010100010011000
1010010111110101
0010100101010111
0010010010001111
1010110110100101
1010110001011010
1010100011010110
1010110000101000
0010000010011101
1010001000101110
1010011010110010
1010100100111100
0010101000011001
1010110001100101
0010110000001011
1010010010110011
1010110010111111
1010101101011010
1010110000101001
0010110111000011
0001110110111110
0010100100001111
0010110101110001
0010100100000010
1010010110010110
1010001010001001
0010011011111101
1010110001101000
0010000010110000
1010100101101000
1010110000000110
1010100000010111
1001111011010110
0010101110111110
0000111010100001
1010101110110000
1010000001000101
1010110010000111
1010110000111100
0010100110000110
1010011010111000
0010001101001100
1010011100110100
1010110000010010
1010100100010000
0010100100110101
0010101011111001
1010101000001111
0010011111010010
1010101000101010
1010101011001111
1010011011001110
0010101001011001
1010100100111111
1010001110100100
0010010110010011
0010100100001101
0010110101000110
1010010011010101
0010110100000110
1010100001001110
0010000100010000
0010000001001100
1010100101101010
1010011000011001
0010101000000111
1001111110111101
0010101101101111
1010010001011000
1010100110000011
0010100111011101
0010110100100101
0010101110110110
1010100001001010
0010110000100110
1010110000011101
1010100101001101
1010101000110001
0010110000111011
0010101000111101
0010110001001100
0001110010101111
0010000010000100
1010101010010011
1010011001001001
0001110111000011
1010100101101111
1010100010010011
1010011101001100
1010100100001101
1001011101101011
0010100101000001
0010001101011000
1001110001000001
0001101010001101
1010100010000101
0010011101010000
1010110011001010
0010101010010100
1010100111010100
1010110011010101
1010110000111010
1010110001000010
1010001000110000
0010000001110011
0010011110011101
1010011111010000
0001100101011100
0010100011110010
1010110101000011
1010110010111110
0010011001111111
1010101010011001
