0010010110010111
0001111110000100
1010100101011100
1010001101111101
0010010110100010
1010001001111100
1010110011111111
1010100111100001
0001111110001001
0001110100001010
0010101011100000
1010110100101000
1010100101110110
1010100000111001
1010010010110000
1010001001110101
1010110010100111
0001000110000101
1001110011001100
0010011101101010
1010010111111000
1010100101110001
0001100110000001
0010101001010000
1010100000111000
1010111101001111
0010011110011010
0001111010010010
1010110000000111
1010010100111000
0010100110100011
1010100010111110
1010111010011110
1010100101010111
1010011010101010
1010001011111010
1001100100101111
1010010110001111
1010100001101110
0010101111011001
0010000111110010
0010100110101100
0010010110100111
0010010000011110
0010100111100101
1010000011100001
0010010100000011
0001101100101101
0010100100011000
1010001010111001
1010110101010001
1010000000011111
0010011111111001
1010010010000111
1010100110001000
0010101010100101
1010100000101000
1010010010100011
1001001101011000
0010110010111101
1010111100101111
1001110000001101
1010100110111101
1010010001000111
1010000010111001
0010100101100000
0010101111101000
1010110011101010
1010100010010011
1010101100001101
0010100011101110
0010101011000110
0010001111101100
1010110101011111
1010101010001001
0010010010011001
0010100011011111
1001110111101101
0010100011010000
1010010001110110
0010011001001110
0001110110000101
0010100101100001
1010101001100111
1010010011000110
0010010100010001
1010110100100111
0010001011111001
0010100011010111
0001110110001110
1010100111011010
0010011111110010
1010011001111111
0001110010111001
0010110101000110
0001110101010011
1010001011011101
1010110001011011
1010100111101010
1010100010111010
1010010110111011
0010011011110101
1010110110110011
1010001010011101
1010110000001010
1010000011100011
0010010100011101
1010011101000000
0001100110110000
0001111101010100
0001111111010100
1010100110101010
0010011000101111
1010101001001010
1010010101111010
1000111111101101
1010110000111001
0010100110100110
1000100111011111
1010000101111100
0010000010110000
1010111010110001
0010100101001111
0010101000010101
0010001000000011
1010111100111001
0010001000001100
1010010110110001
0010101011000101
1010000110000011
1010011111100001
1010101011000100
0010100110001011
1010100100000100
1010001101100010
1010110001001011
0010110010010111
1010110110001101
1010101010100101
0001111110101110
1010110011100011
0001111111101000
0010010111110111
0010011001111001
0001100111001000
1010110000100110
0010011110111110
1010110100101100
1010110011010110
1010101111000001
1010010111001001
0010100000000000
1010101000111101
1010011010011010
0010101001000011
0010011001110010
0010000111111011
0010101011100011
0010010001101110
1010010011110000
0010100101010111
1010101101101010
1010011111101010
1010111111110111
1010110110111011
1010010001101111
1001110000101101
1010101000011101
1010001011001110
1010010100001100
0001111010010111
1010100010001000
1010011110111001
0010011111111110
0010100110111100
1011000000000101
1010010000001110
0010100100001100
0010000000001010
1010000000101111
1010010001111010
0001011011000000
1010011100110100
1010011111111010
0010101001001100
0001111110111000
0010010000011000
1010110011110100
1010101111011101
1010001100111101
0010101011110110
0010001001001011
