0010001000101100
0010111110101111
1010101011000010
0010110101101011
0010110000011111
1010001000110100
0010100011000010
0010100100011100
1011000001000001
1010100111000111
0010100110011111
1010110101111001
1010101000011001
1010110111000010
1010100110011100
1010110001100010
0010110101010101
0010111011100110
0010110011000001
1010011110001011
1010110100001111
1010100011111110
1010111101110000
0010000100000010
0010111101110001
0010110001000100
0010111100011111
0010110001001100
1010001101110110
1010100000100011
1010000010000101
1010110011101101
1010110000001010
0010101001000000
1010111011100010
0010111100000001
1010110001101111
0010011001111010
1010110111101011
1010111100111001
1010100011011000
1010010010001000
0010110001010011
1010111011001111
1001101001100001
0010101110101101
1010011100001000
0001101011011101
0001101111010110
0010011110101010
0010111101001101
0010111010101000
1010111000100000
1010110000001001
1010010111011011
1011000000110100
0010101000101111
0010111000110010
1010111100101001
1010010111010011
1010110010111100
1010101010010001
1010110100011110
1010111011110111
