1010011010010100
0010010001110110
0010011000010000
1001101011010110
1010011000100001
0010000010111100
0010000100101011
1001100000010100
0010010110100110
1010011110110010
0010011010101011
0010010011010100
0010010000111111
1010100001011011
1010100100111000
1010010010000011
1010100011100111
1010000001001001
0010010100000101
1000111111111100
0010011000010000
1001111101011010
0010001100111101
0010001011001010
1010011100111011
0010001001011000
1001101000111001
0010011101001101
0010001101110100
1010011111111001
0001111011101010
0001101100110111
1010010110000110
1010101000001000
0001110010101001
1010110000100111
0010011101000110
1010010110001011
1001110111010010
0010100010100100
0010001100111100
1010010001110000
1001011000001111
0010000001001000
0010010110000110
1010000101111001
1010011101011101
0010010010110010
1010001100001001
1010001001011101
0010011100100101
1010100001110100
1010010111000011
0010100111110111
0010010101111001
0010100001011010
0010001010101011
1010100000110111
0010011001101110
0010011001110100
0010011011101000
1010100010010110
1010000111000101
0010011000101000
0010001000010101
1010000001010100
0010100001100110
1010100001111100
1010001110011011
0010001001000001
1010011110000111
0010011001111111
1001111100001101
0010000011011100
0001100000001001
1010011011110011
0010011101011111
0010000000010101
1010010101111000
0010000000110000
0010010011000010
0010001111001101
1010101011010100
0010100000001111
0010010100001000
0010100000110011
1010101010001100
0010000011010001
1010010011100100
1010010010110111
0010001100011100
0001000101101011
1010000011110010
1010010011110110
0010010000101001
0010000000111010
1010010110111000
0001100000000111
0010001001101100
1010000101100010
1010000010001010
0010011010111011
0010010001101111
1010011110101011
0010000010110000
0010011001101010
1010000011001000
0001110000100011
1010100001001011
1001101101011110
0010010111011100
0010010110010111
0010100001100101
0010001110001101
0010010101010100
0010010111110000
1010100000100110
1010001000101100
0010000011110010
1001110111010001
0001011010100110
0010001101010111
1010011010110001
1010000000100100
1001111100001011
1010010010101011
1010100010101101
1010100001111100
1010100000110001
0010010110101111
0010011110100010
1010001101101011
0010011111001110
0010000100110110
0010010100010001
0001110101000010
0010011011111010
1001101111000110
0010001000000100
0010000111010011
0010100000000010
0010000000000111
0001100111001111
1010000101100010
0010100010000110
0001110111100001
0010011111010001
1010101001111100
1010011011010100
1010101001100111
1010000101100010
1010000100001101
1010011001000110
1010010111100100
0010011101000001
1010010111000110
1010010111110101
0010010110100011
1010100000011010
0010010110111101
1010011011100011
0000011101110101
1010011010111111
0001010010011011
0001010011110101
0010101000011000
0001110011011111
0010010011000110
0010100110110000
0010000010001011
0010011101111110
1010100001111111
0001001101001111
0010100001011111
1010010000001001
0010010111011111
1010011001000000
0000101111001000
1010100101101011
1010000000101001
0010000000110100
1010000110001111
0001110011111000
1010011100000001
0010100000111100
0010100011100111
1010011101101111
1010010111010000
1010101010001111
1010001111000101
1010000010101011
1010100010110110
